{
  "version": "1.0",
  "truncation": null,
  "padding": null,
  "added_tokens": [
    {
      "id": 0,
      "content": "<pad>",
      "single_word": false,
      "lstrip": false,
      "rstrip": false,
      "normalized": false,
      "special": true
    },
    {
      "id": 1,
      "content": "<unk>",
      "single_word": false,
      "lstrip": false,
      "rstrip": false,
      "normalized": false,
      "special": true
    },
    {
      "id": 2,
      "content": "<s>",
      "single_word": false,
      "lstrip": false,
      "rstrip": false,
      "normalized": false,
      "special": true
    },
    {
      "id": 3,
      "content": "</s>",
      "single_word": false,
      "lstrip": false,
      "rstrip": false,
      "normalized": false,
      "special": true
    }
  ],
  "normalizer": {
    "type": "Sequence",
    "normalizers": [
      {
        "type": "NFD"
      },
      {
        "type": "Lowercase"
      },
      {
        "type": "StripAccents"
      }
    ]
  },
  "pre_tokenizer": {
    "type": "Whitespace"
  },
  "post_processor": null,
  "decoder": null,
  "model": {
    "type": "BPE",
    "dropout": null,
    "unk_token": null,
    "continuing_subword_prefix": null,
    "end_of_word_suffix": null,
    "fuse_unk": false,
    "byte_fallback": false,
    "ignore_merges": false,
    "vocab": {
      "<pad>": 0,
      "<unk>": 1,
      "<s>": 2,
      "</s>": 3,
      "!": 4,
      "\"": 5,
      "#": 6,
      "$": 7,
      "%": 8,
      "&": 9,
      "'": 10,
      "(": 11,
      ")": 12,
      "*": 13,
      "+": 14,
      ",": 15,
      "-": 16,
      ".": 17,
      "/": 18,
      "0": 19,
      "1": 20,
      "2": 21,
      "3": 22,
      "4": 23,
      "5": 24,
      "6": 25,
      "7": 26,
      "8": 27,
      "9": 28,
      ":": 29,
      ";": 30,
      "<": 31,
      "=": 32,
      ">": 33,
      "?": 34,
      "@": 35,
      "[": 36,
      "\\": 37,
      "]": 38,
      "^": 39,
      "_": 40,
      "a": 41,
      "b": 42,
      "c": 43,
      "d": 44,
      "e": 45,
      "f": 46,
      "g": 47,
      "h": 48,
      "i": 49,
      "j": 50,
      "k": 51,
      "l": 52,
      "m": 53,
      "n": 54,
      "o": 55,
      "p": 56,
      "q": 57,
      "r": 58,
      "s": 59,
      "t": 60,
      "u": 61,
      "v": 62,
      "w": 63,
      "x": 64,
      "y": 65,
      "z": 66,
      "{": 67,
      "|": 68,
      "}": 69,
      "~": 70,
      "²": 71,
      "³": 72,
      "–": 73,
      "‘": 74,
      "’": 75,
      "…": 76,
      "in": 77,
      "re": 78,
      "st": 79,
      "te": 80,
      "on": 81,
      "tu": 82,
      "th": 83,
      "):": 84,
      "or": 85,
      "um": 86,
      "en": 87,
      "un": 88,
      "ct": 89,
      "rn": 90,
      "retu": 91,
      "return": 92,
      "ri": 93,
      "de": 94,
      "li": 95,
      "le": 96,
      "ion": 97,
      "to": 98,
      "ar": 99,
      "ction": 100,
      "def": 101,
      "an": 102,
      "the": 103,
      "fun": 104,
      "function": 105,
      "list": 106,
      "wri": 107,
      "write": 108,
      "num": 109,
      "al": 110,
      "se": 111,
      "er": 112,
      "if": 113,
      "for": 114,
      "of": 115,
      "ge": 116,
      "co": 117,
      "ma": 118,
      "res": 119,
      "str": 120,
      "ch": 121,
      "ing": 122,
      "iv": 123,
      "arr": 124,
      "ind": 125,
      "tup": 126,
      "find": 127,
      "iven": 128,
      "given": 129,
      "ange": 130,
      "sum": 131,
      "range": 132,
      "==": 133,
      "ber": 134,
      "coun": 135,
      "number": 136,
      "st_": 137,
      "mp": 138,
      "ro": 139,
      "ele": 140,
      "max": 141,
      "count": 142,
      "len": 143,
      "ul": 144,
      "))": 145,
      "at": 146,
      "di": 147,
      "string": 148,
      "el": 149,
      "test_": 150,
      "py": 151,
      "ce": 152,
      "thon": 153,
      "python": 154,
      "ent": 155,
      "tuple": 156,
      "ue": 157,
      "ult": 158,
      "ter": 159,
      "ort": 160,
      "he": 161,
      "su": 162,
      "is": 163,
      "ment": 164,
      "ec": 165,
      "it": 166,
      "result": 167,
      "ap": 168,
      "nums": 169,
      "element": 170,
      "xt": 171,
      "else": 172,
      "la": 173,
      "no": 174,
      "qu": 175,
      "+=": 176,
      "me": 177,
      "and": 178,
      "sub": 179,
      "mo": 180,
      "hi": 181,
      "][": 182,
      "imp": 183,
      "import": 184,
      "val": 185,
      "ir": 186,
      "chec": 187,
      "check": 188,
      "t_": 189,
      "po": 190,
      "ay": 191,
      "mi": 192,
      "rom": 193,
      "min": 194,
      "cu": 195,
      "lo": 196,
      "ate": 197,
      "list1": 198,
      "dd": 199,
      "from": 200,
      "end": 201,
      "])": 202,
      "_list": 203,
      "array": 204,
      "not": 205,
      "are": 206,
      "temp": 207,
      "test_tup": 208,
      "sing": 209,
      "whi": 210,
      "ve": 211,
      "char": 212,
      "text": 213,
      "con": 214,
      "im": 215,
      "ac": 216,
      "tr": 217,
      "numbers": 218,
      "ne": 219,
      "ord": 220,
      "max_": 221,
      "gh": 222,
      "ke": 223,
      "value": 224,
      "all": 225,
      "tw": 226,
      "set": 227,
      "ver": 228,
      "mid": 229,
      "move": 230,
      "while": 231,
      "sp": 232,
      "true": 233,
      "remove": 234,
      "si": 235,
      "imum": 236,
      "ed": 237,
      "fal": 238,
      "ith": 239,
      "int": 240,
      "elements": 241,
      "false": 242,
      "dict": 243,
      "tem": 244,
      "fir": 245,
      "mat": 246,
      "test_list": 247,
      "dp": 248,
      "item": 249,
      "up": 250,
      "cur": 251,
      "heap": 252,
      "ev": 253,
      "mon": 254,
      "odd": 255,
      "ther": 256,
      "using": 257,
      "math": 258,
      "str1": 259,
      "((": 260,
      "act": 261,
      "mb": 262,
      "inde": 263,
      "even": 264,
      "two": 265,
      "('": 266,
      "()": 267,
      "with": 268,
      "key": 269,
      "by": 270,
      "sort": 271,
      "ren": 272,
      "!=": 273,
      "<=": 274,
      "low": 275,
      ")]": 276,
      "ip": 277,
      "pa": 278,
      "word": 279,
      "art": 280,
      "ol": 281,
      "its": 282,
      "gth": 283,
      "pe": 284,
      "ted": 285,
      "col": 286,
      "find_": 287,
      "index": 288,
      "length": 289,
      "quen": 290,
      "tri": 291,
      "whe": 292,
      "eli": 293,
      "10": 294,
      "da": 295,
      "lamb": 296,
      "lambda": 297,
      "as": 298,
      "per": 299,
      "elif": 300,
      "//": 301,
      "be": 302,
      "count_": 303,
      "pos": 304,
      "dig": 305,
      "whether": 306,
      "sor": 307,
      "tern": 308,
      "match": 309,
      "sorted": 310,
      "rime": 311,
      "start": 312,
      "lists": 313,
      "app": 314,
      "',": 315,
      "(\"": 316,
      "ase": 317,
      "sum_": 318,
      "es": 319,
      "rea": 320,
      "sm": 321,
      "maximum": 322,
      "charac": 323,
      "il": 324,
      "tuples": 325,
      "append": 326,
      "],": 327,
      "pat": 328,
      "check_": 329,
      "character": 330,
      "pattern": 331,
      "ame": 332,
      "that": 333,
      "ces": 334,
      "')": 335,
      "first": 336,
      ">=": 337,
      "pair": 338,
      "gle": 339,
      "oc": 340,
      "ut": 341,
      "ght": 342,
      "ary": 343,
      "sequen": 344,
      ")):": 345,
      "pro": 346,
      "ive": 347,
      "area": 348,
      "ab": 349,
      "one": 350,
      "div": 351,
      "ty": 352,
      "ation": 353,
      "pow": 354,
      "ze": 355,
      "tot": 356,
      "\")": 357,
      "_num": 358,
      "equ": 359,
      "ger": 360,
      "squ": 361,
      "_sum": 362,
      "bin": 363,
      "und": 364,
      "lef": 365,
      "month": 366,
      "total": 367,
      "arch": 368,
      "angle": 369,
      "remove_": 370,
      "fact": 371,
      "lar": 372,
      "of_": 373,
      "dif": 374,
      "inte": 375,
      "ans": 376,
      "alle": 377,
      "pla": 378,
      "search": 379,
      "get_": 380,
      "items": 381,
      "integer": 382,
      "\",": 383,
      "),": 384,
      "[]": 385,
      "cal": 386,
      "ly": 387,
      "map": 388,
      "ing_": 389,
      "curren": 390,
      "prod": 391,
      "place": 392,
      "ex": 393,
      "rege": 394,
      "min_": 395,
      "conver": 396,
      "regex": 397,
      "id": 398,
      "diff": 399,
      "convert": 400,
      "00": 401,
      "lst": 402,
      "size": 403,
      "]:": 404,
      "]):": 405,
      "add": 406,
      "case": 407,
      "ext": 408,
      "high": 409,
      "spec": 410,
      "smalle": 411,
      "sequence": 412,
      "extr": 413,
      "posit": 414,
      "al_": 415,
      "values": 416,
      "patterns": 417,
      "fre": 418,
      "prime": 419,
      "ctr": 420,
      "com": 421,
      "is_": 422,
      "minimum": 423,
      "characters": 424,
      "divis": 425,
      "ea": 426,
      "new": 427,
      "first_": 428,
      "extract": 429,
      "fo": 430,
      "ic": 431,
      "sq": 432,
      "uct": 433,
      "row": 434,
      "product": 435,
      "each": 436,
      "ha": 437,
      "lon": 438,
      "mult": 439,
      "ra": 440,
      "ree": 441,
      "right": 442,
      "gest": 443,
      "next": 444,
      "([": 445,
      "ot": 446,
      "test_tup2": 447,
      "cont": 448,
      "pairs": 449,
      "common": 450,
      "zip": 451,
      "here": 452,
      "test_tup1": 453,
      "heapq": 454,
      "_nums": 455,
      "ain": 456,
      "ali": 457,
      "dat": 458,
      "spli": 459,
      "digits": 460,
      "power": 461,
      "left": 462,
      "counter": 463,
      "last": 464,
      "square": 465,
      "calc": 466,
      "specif": 467,
      "multip": 468,
      "data": 469,
      "bits": 470,
      "brea": 471,
      "cate": 472,
      "que": 473,
      "dec": 474,
      "strings": 475,
      "lower": 476,
      "words": 477,
      "break": 478,
      "ace": 479,
      "flo": 480,
      "ance": 481,
      "str2": 482,
      "sur": 483,
      "ending_": 484,
      "integers": 485,
      "ending_here": 486,
      "_count": 487,
      "na": 488,
      "ow": 489,
      "us": 490,
      "inp": 491,
      "replace": 492,
      "ors": 493,
      "ctions": 494,
      "ulate": 495,
      "digit": 496,
      "binary": 497,
      "calculate": 498,
      "ad": 499,
      "nth": 500,
      "none": 501,
      "ume": 502,
      "lections": 503,
      "num2": 504,
      "curr": 505,
      "perime": 506,
      "collections": 507,
      "equal": 508,
      "split": 509,
      "perimeter": 510,
      "]+": 511,
      "_f": 512,
      "cn": 513,
      "cy": 514,
      ")))": 515,
      "diction": 516,
      "face": 517,
      "gro": 518,
      "jo": 519,
      "idx": 520,
      "smallest": 521,
      "group": 522,
      "*(": 523,
      "so": 524,
      "same": 525,
      "inc": 526,
      "to_": 527,
      "verse": 528,
      "rence": 529,
      "triangle": 530,
      "able": 531,
      "surface": 532,
      "join": 533,
      "[:": 534,
      "dup": 535,
      "ied": 536,
      "ms": 537,
      "mer": 538,
      "sa": 539,
      "vol": 540,
      "vali": 541,
      "let": 542,
      "max_ending_here": 543,
      "ations": 544,
      "float": 545,
      "volume": 546,
      "[-": 547,
      "cd": 548,
      "name": 549,
      "pres": 550,
      "repe": 551,
      "three": 552,
      "contain": 553,
      "'.": 554,
      ");": 555,
      "age": 556,
      "een": 557,
      "gcd": 558,
      "my": 559,
      "pr": 560,
      "unt": 561,
      "num1": 562,
      "set_": 563,
      "root": 564,
      "test_str": 565,
      "ays": 566,
      "tween": 567,
      "upper": 568,
      "between": 569,
      "occurren": 570,
      "largest": 571,
      "diffe": 572,
      "position": 573,
      "merge": 574,
      "ble": 575,
      "iter": 576,
      "other": 577,
      "ral": 578,
      "ut_": 579,
      "reverse": 580,
      "rix": 581,
      "get": 582,
      "specified": 583,
      "dupli": 584,
      "_of_": 585,
      "ag": 586,
      "amo": 587,
      "bit": 588,
      "d_": 589,
      "lu": 590,
      "rt": 591,
      "arr_": 592,
      "rot": 593,
      "ell": 594,
      "neg": 595,
      "frequen": 596,
      "radi": 597,
      "amount": 598,
      "]))": 599,
      "base": 600,
      "fil": 601,
      "ial": 602,
      "ss": 603,
      "sw": 604,
      "vow": 605,
      "sted": 606,
      "tural": 607,
      "cost": 608,
      "comp": 609,
      "nested": 610,
      "found": 611,
      "natural": 612,
      "frequency": 613,
      "_number": 614,
      "gn": 615,
      "has": 616,
      "red": 617,
      "rect": 618,
      "stance": 619,
      "than": 620,
      "der": 621,
      "teral": 622,
      "subsequence": 623,
      "which": 624,
      "sign": 625,
      "cnt": 626,
      "dictionary": 627,
      "valid": 628,
      "duplicate": 629,
      "[[": 630,
      "ault": 631,
      "aces": 632,
      "fi": 633,
      "ight": 634,
      "k_": 635,
      "ps": 636,
      "pre": 637,
      "into": 638,
      "ten": 639,
      "uni": 640,
      "righ": 641,
      "le_": 642,
      "default": 643,
      "gest_": 644,
      "height": 645,
      "cube": 646,
      "spaces": 647,
      "matrix": 648,
      "decim": 649,
      "input": 650,
      "letter": 651,
      "difference": 652,
      "right_": 653,
      "!')": 654,
      "():": 655,
      "ares": 656,
      "bell": 657,
      "ear": 658,
      "lin": 659,
      "lat": 660,
      "sion": 661,
      "any": 662,
      "list2": 663,
      "comb": 664,
      "max_so": 665,
      "squares": 666,
      "_far": 667,
      "filter": 668,
      "max_so_far": 669,
      ",-": 670,
      "-=": 671,
      ">>": 672,
      "_string": 673,
      "_to_": 674,
      "emp": 675,
      "ise": 676,
      "l1": 677,
      "lf": 678,
      "sy": 679,
      "sol": 680,
      "zer": 681,
      "self": 682,
      "erate": 683,
      "dic": 684,
      "test_tuple": 685,
      "sub_": 686,
      "conse": 687,
      "even_": 688,
      "matched": 689,
      "reasing": 690,
      "present": 691,
      "my_list": 692,
      "swap": 693,
      "empty": 694,
      "zero": 695,
      "**": 696,
      "_elements": 697,
      "cl": 698,
      "ef": 699,
      "ig": 700,
      "n1": 701,
      "omi": 702,
      "ti": 703,
      "ries": 704,
      "chil": 705,
      "round": 706,
      "nums1": 707,
      "nums2": 708,
      "cut": 709,
      "keys": 710,
      "binomi": 711,
      "left_": 712,
      "repeate": 713,
      "contains": 714,
      "decimal": 715,
      "combin": 716,
      "consecut": 717,
      "12": 718,
      "].": 719,
      "bs": 720,
      "cm": 721,
      "can": 722,
      "days": 723,
      "ls": 724,
      "mx": 725,
      "pi": 726,
      "sc": 727,
      "sh": 728,
      "{}": 729,
      "seq": 730,
      "sqrt": 731,
      "increasing": 732,
      "negat": 733,
      "unique": 734,
      "time": 735,
      "consecutive": 736,
      "*=": 737,
      "aver": 738,
      "fla": 739,
      "gap": 740,
      "jac": 741,
      "lcm": 742,
      "year": 743,
      "alp": 744,
      "res_": 745,
      "findall": 746,
      "ack": 747,
      "sequences": 748,
      "positive": 749,
      "freq": 750,
      "divisors": 751,
      "have": 752,
      "multiple": 753,
      "queue": 754,
      "adjac": 755,
      "average": 756,
      "flag": 757,
      "\"\"": 758,
      "':": 759,
      ").": 760,
      "<<": 761,
      "]]": 762,
      "bo": 763,
      "hq": 764,
      "l2": 765,
      "mn": 766,
      "nc": 767,
      "non": 768,
      "instance": 769,
      "stack": 770,
      "order": 771,
      "top": 772,
      "coef": 773,
      "arr1": 774,
      "arr2": 775,
      "dian": 776,
      "term": 777,
      "isinstance": 778,
      "median": 779,
      "pop": 780,
      "text_": 781,
      "within": 782,
      "monthname": 783,
      "extract_": 784,
      "common_": 785,
      "agon": 786,
      "defaultdict": 787,
      "sys": 788,
      "repeated": 789,
      "!'": 790,
      "''": 791,
      ")/": 792,
      "_items": 793,
      "mis": 794,
      "pri": 795,
      "par": 796,
      "part": 797,
      "ts": 798,
      "ug": 799,
      "ur": 800,
      "inter": 801,
      "rity": 802,
      "ular": 803,
      "tuplex": 804,
      "lateral": 805,
      "subset": 806,
      "mod": 807,
      "dict1": 808,
      "parity": 809,
      "startx": 810,
      "occu": 811,
      "type": 812,
      "factor": 813,
      "current_": 814,
      "000": 815,
      "divisor": 816,
      "newlist": 817,
      "longest_": 818,
      "arr_len": 819,
      "vowel": 820,
      "letters": 821,
      "child": 822,
      "negative": 823,
      "times": 824,
      "missing": 825,
      ")-": 826,
      "__": 827,
      "_term": 828,
      "date": 829,
      "ect": 830,
      "ever": 831,
      "jum": 832,
      "out": 833,
      "out_": 834,
      "pus": 835,
      "table": 836,
      "uc": 837,
      "ric": 838,
      "tool": 839,
      "ant": 840,
      "num3": 841,
      "num_list": 842,
      "secon": 843,
      "seas": 844,
      "ofit": 845,
      "such": 846,
      "sublist": 847,
      "point": 848,
      "max_sum": 849,
      "odd_": 850,
      "inder": 851,
      "sort_": 852,
      "ution": 853,
      "of_place": 854,
      "exp": 855,
      "longest": 856,
      "multiply": 857,
      "lowercase": 858,
      "groupby": 859,
      "print": 860,
      "profit": 861,
      "occurrence": 862,
      "occurrences": 863,
      "itertool": 864,
      "solution": 865,
      "binomial_": 866,
      "combinations": 867,
      "adjacent": 868,
      "price": 869,
      "vowels": 870,
      "jumps": 871,
      "out_of_place": 872,
      "push": 873,
      "season": 874,
      "itertools": 875,
      "'\\": 876,
      "(\\": 877,
      "())": 878,
      "25": 879,
      "60": 880,
      "_sort": 881,
      "_ctr": 882,
      "fol": 883,
      "gor": 884,
      "gen": 885,
      "grea": 886,
      "io": 887,
      "ired": 888,
      "ose": 889,
      "oper": 890,
      "yy": 891,
      "requ": 892,
      "only": 893,
      "another": 894,
      "tup1": 895,
      "ele1": 896,
      "ele2": 897,
      "dist": 898,
      "substring": 899,
      "most": 900,
      "most_": 901,
      "log": 902,
      "max_val": 903,
      "sible": 904,
      "possible": 905,
      "matches": 906,
      "starty": 907,
      "occur": 908,
      "input_": 909,
      "surfacearea": 910,
      "ludic": 911,
      "rotate": 912,
      "fix": 913,
      "alpha": 914,
      "text_match": 915,
      "every": 916,
      "binomial_coef": 917,
      "follow": 918,
      "greater": 919,
      "required": 920,
      "input_list": 921,
      "2000": 922,
      "[(": 923,
      "]=": 924,
      "]\",": 925,
      "_element": 926,
      "bal": 927,
      "ca": 928,
      "ci": 929,
      "cord": 930,
      "gol": 931,
      "oct": 932,
      "pal": 933,
      "tc": 934,
      "ute": 935,
      "umerate": 936,
      "enumerate": 937,
      "algor": 938,
      "form": 939,
      "indro": 940,
      "diame": 941,
      "cep": 942,
      "milar": 943,
      "_lists": 944,
      "concate": 945,
      "similar": 946,
      "ithm": 947,
      "dict_": 948,
      "(),": 949,
      "sum_of_": 950,
      "smallest_": 951,
      "first_odd": 952,
      "first_even": 953,
      "specific": 954,
      "currlen": 955,
      "uppercase": 956,
      "rectangle": 957,
      "zeroes": 958,
      "scri": 959,
      "ncr": 960,
      "factorial": 961,
      "gold": 962,
      "palindro": 963,
      "algorithm": 964,
      "diameter": 965,
      "concaten": 966,
      "\":": 967,
      "$'": 968,
      ")+": 969,
      "]*": 970,
      "_st": 971,
      "_tuple": 972,
      "_ed": 973,
      "_data": 974,
      "ae": 975,
      "ggle": 976,
      "ible": 977,
      "ks": 978,
      "m2": 979,
      "run": 980,
      "ving": 981,
      "wise": 982,
      "int_": 983,
      "lip": 984,
      "toggle": 985,
      "arrange": 986,
      "last_": 987,
      "noof": 988,
      "substrings": 989,
      "poly": 990,
      "mic": 991,
      "array_nums": 992,
      "single": 993,
      "chars": 994,
      "side": 995,
      "100": 996,
      "//=": 997,
      "abs": 998,
      "factors": 999,
      "),-": 1000,
      "current": 1001,
      "arr_size": 1002,
      "rotations": 1003,
      "prefix": 1004,
      "increasing_": 1005,
      "followed": 1006,
      "balance": 1007,
      "15": 1008,
      "16": 1009,
      ">>=": 1010,
      "];": 1011,
      "]?": 1012,
      "_str": 1013,
      "_val": 1014,
      "_dict": 1015,
      "_length": 1016,
      "aries": 1017,
      "cmath": 1018,
      "do": 1019,
      "ding": 1020,
      "dow": 1021,
      "fin": 1022,
      "gon": 1023,
      "mar": 1024,
      "ok_": 1025,
      "sna": 1026,
      "ways": 1027,
      "xor": 1028,
      "xed": 1029,
      "z0": 1030,
      "inct": 1031,
      "inate": 1032,
      "recur": 1033,
      "record": 1034,
      "lis": 1035,
      "series": 1036,
      "ify": 1037,
      "coin": 1038,
      "make": 1039,
      "change": 1040,
      "chain": 1041,
      "=='": 1042,
      "discri": 1043,
      "node": 1044,
      "sublists": 1045,
      "irc": 1046,
      "mixed": 1047,
      "look_": 1048,
      "arrays": 1049,
      "ordinate": 1050,
      "heappop": 1051,
      "('[": 1052,
      "with_": 1053,
      "perform": 1054,
      "primes": 1055,
      "divisible": 1056,
      "dictionaries": 1057,
      "luc": 1058,
      "prev": 1059,
      "line": 1060,
      "swaps": 1061,
      "agonal": 1062,
      "distinct": 1063,
      "palindrome": 1064,
      "down": 1065,
      "marks": 1066,
      "snake": 1067,
      "discrimin": 1068,
      "look_up": 1069,
      "\".": 1070,
      "'[": 1071,
      ")*": 1072,
      "360": 1073,
      ":]": 1074,
      ":])": 1075,
      "\\\\": 1076,
      "]|": 1077,
      "_len": 1078,
      "_characters": 1079,
      "_with_": 1080,
      "buc": 1081,
      "circ": 1082,
      "eric": 1083,
      "flat": 1084,
      "gri": 1085,
      "ghe": 1086,
      "gular": 1087,
      "hund": 1088,
      "ist": 1089,
      "ile": 1090,
      "kth": 1091,
      "linder": 1092,
      "mm": 1093,
      "mul": 1094,
      "mel": 1095,
      "mls": 1096,
      "n2": 1097,
      "nthe": 1098,
      "pare": 1099,
      "ule": 1100,
      "v_count": 1101,
      "wh": 1102,
      "yes": 1103,
      "inse": 1104,
      "inv_count": 1105,
      "tual_": 1106,
      "umn": 1107,
      "units": 1108,
      "deg": 1109,
      "lies": 1110,
      "literal": 1111,
      "lea": 1112,
      "lex": 1113,
      "their": 1114,
      "altern": 1115,
      "format": 1116,
      "coordinate": 1117,
      "tup2": 1118,
      "sumof": 1119,
      "==\"": 1120,
      "elem": 1121,
      "maxsize": 1122,
      "test_list1": 1123,
      "terms": 1124,
      "hex": 1125,
      "mean": 1126,
      "highe": 1127,
      "char_": 1128,
      "text1": 1129,
      "actual_": 1130,
      "tra": 1131,
      "test_list2": 1132,
      "heappush": 1133,
      "path": 1134,
      "colon": 1135,
      "column": 1136,
      "where": 1137,
      "(\"[": 1138,
      "sum_range": 1139,
      "monthnum2": 1140,
      "exist": 1141,
      "special": 1142,
      "sqa": 1143,
      "having": 1144,
      "long": 1145,
      "curr_sum": 1146,
      "cylinder": 1147,
      "[:-": 1148,
      "msis": 1149,
      "samp": 1150,
      "sale_": 1151,
      "repeat": 1152,
      "vow_list": 1153,
      "compile": 1154,
      "complex": 1155,
      "duplicates": 1156,
      "gaps": 1157,
      "monthname2": 1158,
      "generate": 1159,
      "iou": 1160,
      "ludics": 1161,
      "binomial_coeff": 1162,
      "camel": 1163,
      "cept": 1164,
      "concatenate": 1165,
      "aeiou": 1166,
      "polygon": 1167,
      "increasing_subsequence": 1168,
      "discriminant": 1169,
      "flatten": 1170,
      "grid": 1171,
      "parenthe": 1172,
      "actual_cost": 1173,
      "sale_amount": 1174,
      "\"\\": 1175,
      "'^": 1176,
      "'):": 1177,
      "'))": 1178,
      "'',": 1179,
      "''.": 1180,
      ")==": 1181,
      "14": 1182,
      "_tuples": 1183,
      "_matrix": 1184,
      "au": 1185,
      "ari": 1186,
      "amic": 1187,
      "cap": 1188,
      "ds": 1189,
      "den": 1190,
      "fect": 1191,
      "flip": 1192,
      "ient": 1193,
      "lds": 1194,
      "mcl": 1195,
      "op": 1196,
      "plat": 1197,
      "rin": 1198,
      "y1": 1199,
      "y2": 1200,
      "|=": 1201,
      "rev": 1202,
      "orig": 1203,
      "ded": 1204,
      "dep": 1205,
      "lim": 1206,
      "less": 1207,
      "section": 1208,
      "forme": 1209,
      "off": 1210,
      "cos": 1211,
      "ivenum": 1212,
      "summ": 1213,
      "sum_list": 1214,
      "mpis": 1215,
      "ator": 1216,
      "dit": 1217,
      "distance": 1218,
      "test_dict": 1219,
      "isdigit": 1220,
      "metri": 1221,
      "subsequences": 1222,
      "midd": 1223,
      "roman": 1224,
      "cubo": 1225,
      "ending": 1226,
      "])):": 1227,
      "array_": 1228,
      "max_length": 1229,
      "heapify": 1230,
      "perm": 1231,
      "perfect": 1232,
      "sum_fact": 1233,
      "ill": 1234,
      "largest_": 1235,
      "exten": 1236,
      "excl": 1237,
      "min_length": 1238,
      "four": 1239,
      "sqb": 1240,
      "curr_term": 1241,
      "names": 1242,
      "containing": 1243,
      "radix": 1244,
      "radius": 1245,
      "ugly": 1246,
      "intersection": 1247,
      "longest_increasing_subsequence": 1248,
      "second": 1249,
      "alphabe": 1250,
      "text_match_": 1251,
      "goldtable": 1252,
      "noofzeroes": 1253,
      "coins": 1254,
      "whose": 1255,
      "insert": 1256,
      "literals": 1257,
      "coordinates": 1258,
      "amicable": 1259,
      "capit": 1260,
      "formed": 1261,
      "metric": 1262,
      "cuboid": 1263,
      "extend": 1264,
      "\"[": 1265,
      "(-": 1266,
      ")(": 1267,
      ")*(": 1268,
      "*?": 1269,
      "+',": 1270,
      ".',": 1271,
      "20": 1272,
      "26": 1273,
      "30": 1274,
      "50": 1275,
      ":-": 1276,
      "[])": 1277,
      "_l": 1278,
      "_ind": 1279,
      "_and": 1280,
      "_value": 1281,
      "_area": 1282,
      "_size": 1283,
      "_square": 1284,
      "_age": 1285,
      "_set_": 1286,
      "bise": 1287,
      "clo": 1288,
      "dbs": 1289,
      "ep": 1290,
      "ema": 1291,
      "fic": 1292,
      "har": 1293,
      "ject": 1294,
      "lsa": 1295,
      "m1": 1296,
      "msi": 1297,
      "nct": 1298,
      "ola": 1299,
      "p1": 1300,
      "s_": 1301,
      "sen": 1302,
      "sdict": 1303,
      "sive": 1304,
      "tn": 1305,
      "tmp": 1306,
      "x1": 1307,
      "x2": 1308,
      "{'": 1309,
      "inf": 1310,
      "inn": 1311,
      "init": 1312,
      "invalid": 1313,
      "rem": 1314,
      "rear": 1315,
      "reate": 1316,
      "tetra": 1317,
      "ente": 1318,
      "ented": 1319,
      "angular": 1320,
      "num_": 1321,
      "numeric": 1322,
      "of2": 1323,
      "copy": 1324,
      "strt_": 1325,
      "str_list": 1326,
      "ranges": 1327,
      "maxi": 1328,
      "maxlen": 1329,
      ")),": 1330,
      "))]": 1331,
      "string1": 1332,
      "tuple1": 1333,
      "hed": 1334,
      "super": 1335,
      "no_of_": 1336,
      "memo": 1337,
      "rom_val": 1338,
      "]),": 1339,
      "cone": 1340,
      "kets": 1341,
      "setdefault": 1342,
      "monic": 1343,
      "pea": 1344,
      "colors": 1345,
      "tri_": 1346,
      "trip": 1347,
      "1000": 1348,
      "asci": 1349,
      "sorted1": 1350,
      "sum_digits": 1351,
      "check_equ": 1352,
      "check_month": 1353,
      "occ": 1354,
      "util": 1355,
      "abola": 1356,
      "divi": 1357,
      "\");": 1358,
      "except": 1359,
      "min_ending_here": 1360,
      "al_profit": 1361,
      "sqc": 1362,
      "next_term": 1363,
      "powerof2": 1364,
      "floor": 1365,
      "replace_": 1366,
      "binary_": 1367,
      "msdbs": 1368,
      "volume_": 1369,
      "my_matrix": 1370,
      "set_bit": 1371,
      "positions": 1372,
      "radian": 1373,
      "compute": 1374,
      "sub_set": 1375,
      "left_element": 1376,
      "seq_nums": 1377,
      "paralle": 1378,
      "parabola": 1379,
      "uglies": 1380,
      "occurence": 1381,
      "current_element": 1382,
      "second_": 1383,
      "operator": 1384,
      "octal": 1385,
      "final_profit": 1386,
      "lucas": 1387,
      "buckets": 1388,
      "degree": 1389,
      "least": 1390,
      "alternate": 1391,
      "highest": 1392,
      "parenthese": 1393,
      "1415": 1394,
      "bisect": 1395,
      "email": 1396,
      "ficient": 1397,
      "harmonic": 1398,
      "msibs": 1399,
      "tetrahed": 1400,
      "strt_val": 1401,
      "ascii": 1402,
      "'}": 1403,
      "(*": 1404,
      ")>": 1405,
      ")',": 1406,
      "18": 1407,
      "['": 1408,
      "\\.": 1409,
      "_n": 1410,
      "_range": 1411,
      "_no": 1412,
      "_mo": 1413,
      "_ne": 1414,
      "af": 1415,
      "bus": 1416,
      "big": 1417,
      "c0": 1418,
      "c1": 1419,
      "cor": 1420,
      "cat": 1421,
      "cation": 1422,
      "create": 1423,
      "df": 1424,
      "dt": 1425,
      "eded": 1426,
      "fac": 1427,
      "fctr": 1428,
      "ht": 1429,
      "han": 1430,
      "h_age": 1431,
      "iel": 1432,
      "man": 1433,
      "ning_": 1434,
      "over": 1435,
      "ous": 1436,
      "ometric": 1437,
      "rd": 1438,
      "ron": 1439,
      "rat": 1440,
      "sd": 1441,
      "tree": 1442,
      "ust": 1443,
      "vari": 1444,
      "wer": 1445,
      "y_num": 1446,
      "yiel": 1447,
      "za": 1448,
      "inum": 1449,
      "inver": 1450,
      "rema": 1451,
      "onding": 1452,
      "enco": 1453,
      "unset": 1454,
      "under": 1455,
      "dels": 1456,
      "leap": 1457,
      "ofsum": 1458,
      "geometric": 1459,
      "ress": 1460,
      "sum1": 1461,
      "maxprime": 1462,
      "len_": 1463,
      "))))": 1464,
      "iso": 1465,
      "result_list": 1466,
      "quent": 1467,
      "subset_": 1468,
      "subseq": 1469,
      "subject": 1470,
      "more": 1471,
      "polar": 1472,
      "loss": 1473,
      "charge": 1474,
      "imbalance": 1475,
      "acces": 1476,
      "max_value": 1477,
      "max_sum_": 1478,
      "two_": 1479,
      "rences": 1480,
      "rencont": 1481,
      "ip_ind": 1482,
      "word_len": 1483,
      "col_st": 1484,
      "col_ed": 1485,
      "find_max": 1486,
      "find_first_": 1487,
      "find_pea": 1488,
      "perrin": 1489,
      "count_map": 1490,
      "starting": 1491,
      "equi": 1492,
      "equation": 1493,
      "monthnum3": 1494,
      "remove_index": 1495,
      "answer": 1496,
      "get_height": 1497,
      "min_val": 1498,
      "address": 1499,
      "smaller": 1500,
      "newman": 1501,
      "row_st": 1502,
      "row_ed": 1503,
      "ram": 1504,
      "contin": 1505,
      "ality": 1506,
      "split_": 1507,
      "power_of_": 1508,
      "squareofsum": 1509,
      "decinum": 1510,
      "surcharge": 1511,
      "reversed": 1512,
      "tence": 1513,
      "cubes": 1514,
      "_to_tuple": 1515,
      "dic_data": 1516,
      "binomial": 1517,
      "combine": 1518,
      "shif": 1519,
      "monthname3": 1520,
      "parts": 1521,
      "url": 1522,
      "lateralsurface": 1523,
      "current_sum": 1524,
      "points": 1525,
      "surfacearea_": 1526,
      "rectangles": 1527,
      "running_": 1528,
      "last_digit": 1529,
      "balanced": 1530,
      "]?[": 1531,
      "dog": 1532,
      "sample_": 1533,
      "'^[": 1534,
      "plat_ne": 1535,
      "permut": 1536,
      "alphabets": 1537,
      "amicables": 1538,
      "close": 1539,
      "sentence": 1540,
      "entered": 1541,
      "super_": 1542,
      "triplet": 1543,
      "check_equality": 1544,
      "divide": 1545,
      "binary_search": 1546,
      "180": 1547,
      "after": 1548,
      "htt": 1549,
      "variable": 1550,
      "yield": 1551,
      "inversion": 1552,
      "remainder": 1553,
      "rencontres": 1554,
      "running_count": 1555,
      "plat_needed": 1556,
      "']": 1557,
      "'')": 1558,
      "(.": 1559,
      ")//": 1560,
      ")>=": 1561,
      "+(": 1562,
      ",(": 1563,
      "-\\\\": 1564,
      "1_": 1565,
      "21": 1566,
      "3d": 1567,
      "45": 1568,
      ":]))": 1569,
      "=(": 1570,
      "=[": 1571,
      "_to": 1572,
      "_max": 1573,
      "_min": 1574,
      "_int": 1575,
      "_product": 1576,
      "_words": 1577,
      "_perimeter": 1578,
      "_nested": 1579,
      "_even_": 1580,
      "_specific": 1581,
      "alist": 1582,
      "aco": 1583,
      "bst": 1584,
      "bon": 1585,
      "bot": 1586,
      "b_number": 1587,
      "cla": 1588,
      "c_num": 1589,
      "d1": 1590,
      "d2": 1591,
      "ez": 1592,
      "eap": 1593,
      "eule": 1594,
      "fe": 1595,
      "fif": 1596,
      "ium": 1597,
      "ice": 1598,
      "isu": 1599,
      "i_list": 1600,
      "ices": 1601,
      "ize": 1602,
      "ical": 1603,
      "ial_": 1604,
      "jaco": 1605,
      "l3": 1606,
      "lan": 1607,
      "lnum": 1608,
      "men": 1609,
      "mber": 1610,
      "must": 1611,
      "nno": 1612,
      "nsmallest": 1613,
      "nlargest": 1614,
      "p2": 1615,
      "p3": 1616,
      "p4": 1617,
      "p5": 1618,
      "p6": 1619,
      "pq": 1620,
      "pent": 1621,
      "pper": 1622,
      "ponding": 1623,
      "q_items": 1624,
      "rt_": 1625,
      "s1": 1626,
      "sl": 1627,
      "sco": 1628,
      "ta": 1629,
      "tan": 1630,
      "tren": 1631,
      "uary": 1632,
      "w_": 1633,
      "wind": 1634,
      "xs": 1635,
      "})-": 1636,
      "inverse": 1637,
      "re_": 1638,
      "rection": 1639,
      "repres": 1640,
      "represent": 1641,
      "rearrange": 1642,
      "star": 1643,
      "tex": 1644,
      "tespaces": 1645,
      "onic": 1646,
      "tumn": 1647,
      "thing": 1648,
      "orde": 1649,
      "ordd": 1650,
      "ensive": 1651,
      "ctor": 1652,
      "rian": 1653,
      "dev": 1654,
      "deal": 1655,
      "arc": 1656,
      "ard": 1657,
      "list3": 1658,
      "list_": 1659,
      "listval": 1660,
      "list_num": 1661,
      "list_data": 1662,
      "alan": 1663,
      "alent": 1664,
      "also": 1665,
      "sector": 1666,
      "responding": 1667,
      "stract": 1668,
      "cheap": 1669,
      "ivid": 1670,
      "ivalent": 1671,
      "individ": 1672,
      "finditer": 1673,
      "number_ctr": 1674,
      "maxele": 1675,
      "max_list": 1676,
      "maxvalue": 1677,
      "maxocc": 1678,
      "counts": 1679,
      "countval": 1680,
      "ulo": 1681,
      "ating": 1682,
      "dity": 1683,
      "direct": 1684,
      "dimen": 1685,
      "direction": 1686,
      "tuple_to_": 1687,
      "isalpha": 1688,
      "isize": 1689,
      "ected": 1690,
      "ition": 1691,
      "result_string": 1692,
      "apez": 1693,
      "late": 1694,
      "quot": 1695,
      "quad": 1696,
      "subarray": 1697,
      "substract": 1698,
      "rombus": 1699,
      "minele": 1700,
      "min_list": 1701,
      "cus": 1702,
      "endx": 1703,
      "endy": 1704,
      "whitespaces": 1705,
      "texts": 1706,
      "acci": 1707,
      "trapez": 1708,
      "max_count": 1709,
      "max_product": 1710,
      "all_": 1711,
      "ally": 1712,
      "setbits": 1713,
      "vertex": 1714,
      "sphere": 1715,
      "space": 1716,
      "dict2": 1717,
      "item_list": 1718,
      "itemget": 1719,
      "heap_": 1720,
      "(((": 1721,
      "(',": 1722,
      "()]": 1723,
      "()):": 1724,
      "color": 1725,
      "find_min": 1726,
      "elim": 1727,
      "assign": 1728,
      "count_elim": 1729,
      "pos_count": 1730,
      "apped": 1731,
      "(\"\".": 1732,
      "sum_nums": 1733,
      "check_element": 1734,
      "check_solution": 1735,
      "area_": 1736,
      "abund": 1737,
      "equal_": 1738,
      "equivalent": 1739,
      "angled": 1740,
      "remove_lower": 1741,
      "remove_duplicate": 1742,
      "remove_empty": 1743,
      "\",\"": 1744,
      "caluc": 1745,
      "ing_char": 1746,
      "placement": 1747,
      "expres": 1748,
      "min_count": 1749,
      "min_swaps": 1750,
      "lst1": 1751,
      "add_dict": 1752,
      "extra": 1753,
      "al_to_": 1754,
      "primedivisors": 1755,
      "is_subset_": 1756,
      "division": 1757,
      "new_num": 1758,
      "new_length": 1759,
      "focus": 1760,
      "hamm": 1761,
      "multi_list": 1762,
      "next_list": 1763,
      "alize": 1764,
      "power_sum": 1765,
      "multipli": 1766,
      "dataset": 1767,
      "lower_ctr": 1768,
      "adver": 1769,
      "umeric": 1770,
      "]+[": 1771,
      "]+$'": 1772,
      "incl": 1773,
      "[:]": 1774,
      "validity": 1775,
      "set_bits": 1776,
      "upper_ctr": 1777,
      "merged_": 1778,
      "iterable": 1779,
      "bitwise": 1780,
      "neg_count": 1781,
      "radians": 1782,
      "]));": 1783,
      "base1": 1784,
      "base2": 1785,
      "bases": 1786,
      "swapped": 1787,
      "rectangular": 1788,
      "fibon": 1789,
      "k_util": 1790,
      "uniq_items": 1791,
      "right_element": 1792,
      "lines": 1793,
      "linear": 1794,
      "solve": 1795,
      "sub_res": 1796,
      "chill": 1797,
      "mxm": 1798,
      "alphan": 1799,
      "res_ind": 1800,
      "bool": 1801,
      "common_subsequence": 1802,
      "module": 1803,
      "modulo": 1804,
      "longest_common_subsequence": 1805,
      "__init": 1806,
      "expensive": 1807,
      "expected": 1808,
      "solutions": 1809,
      "yyyy": 1810,
      "most_common": 1811,
      "logram": 1812,
      "occurs": 1813,
      "binomial_coeffi": 1814,
      "dict_str1": 1815,
      "dict_str2": 1816,
      "]*',": 1817,
      "int_val": 1818,
      "]?)": 1819,
      "recursion": 1820,
      "records": 1821,
      "mixed_list": 1822,
      "prev_list": 1823,
      "]|[": 1824,
      "circle": 1825,
      "hund1": 1826,
      "hund4": 1827,
      "sumofprimedivisors": 1828,
      "exists": 1829,
      "aeiouaeiou": 1830,
      "polygons": 1831,
      "autumn": 1832,
      "rev_num": 1833,
      "limit": 1834,
      "offset": 1835,
      "dition": 1836,
      "middle": 1837,
      "fourth": 1838,
      "insertion": 1839,
      "capitalize": 1840,
      "inner": 1841,
      "sum_digits_": 1842,
      "check_monthnum": 1843,
      "parallelogram": 1844,
      "harmonic_sum": 1845,
      "tetrahedron": 1846,
      "corresponding": 1847,
      "catalan": 1848,
      "ratic": 1849,
      "undersco": 1850,
      "access": 1851,
      "find_peak_util": 1852,
      "continue": 1853,
      "sample_names": 1854,
      "closest": 1855,
      "super_seq": 1856,
      "https": 1857,
      "rencontres_number": 1858,
      "_to_list": 1859,
      "bsth": 1860,
      "botto": 1861,
      "class": 1862,
      "eulerian": 1863,
      "fifth": 1864,
      "isupper": 1865,
      "jacobsth": 1866,
      "nnoy_num": 1867,
      "pentagon": 1868,
      "trend": 1869,
      "})-(\\": 1870,
      "represented": 1871,
      "ordered": 1872,
      "dealnnoy_num": 1873,
      "individu": 1874,
      "directrix": 1875,
      "dimension": 1876,
      "quadratic": 1877,
      "trapezium": 1878,
      "itemgetter": 1879,
      "abundant": 1880,
      "caluclate": 1881,
      "expression": 1882,
      "is_subset_sum": 1883,
      "merged_dict": 1884,
      "fibonacci": 1885,
      "alphanumeric": 1886,
      "__init__": 1887,
      "underscore": 1888,
      "\"^": 1889,
      "\"{": 1890,
      "\"))": 1891,
      "'])": 1892,
      ")<": 1893,
      ")?": 1894,
      ")([": 1895,
      ")[:": 1896,
      ",.": 1897,
      ".[": 1898,
      "/=": 1899,
      "11": 1900,
      "130": 1901,
      "::": 1902,
      "://": 1903,
      "::-": 1904,
      "=((": 1905,
      "=[]": 1906,
      "?'": 1907,
      "]\"": 1908,
      "](": 1909,
      "]\\": 1910,
      "]==": 1911,
      "]',": 1912,
      "]*(": 1913,
      "_li": 1914,
      "_ele": 1915,
      "_char": 1916,
      "_numbers": 1917,
      "_odd": 1918,
      "_even": 1919,
      "_one": 1920,
      "_diff": 1921,
      "_prime": 1922,
      "_right": 1923,
      "_equal": 1924,
      "_consecutive": 1925,
      "_common_": 1926,
      "_date": 1927,
      "_price": 1928,
      "_format": 1929,
      "_colon": 1930,
      "_dit": 1931,
      "_balanced": 1932,
      "av": 1933,
      "adecimal": 1934,
      "bi": 1935,
      "br": 1936,
      "cle": 1937,
      "cter": 1938,
      "dct": 1939,
      "dlist": 1940,
      "dent": 1941,
      "dot": 1942,
      "g2": 1943,
      "gre": 1944,
      "gres": 1945,
      "hset": 1946,
      "ian": 1947,
      "iidx": 1948,
      "jun": 1949,
      "king": 1950,
      "march": 1951,
      "n_common_": 1952,
      "od": 1953,
      "od_": 1954,
      "ph": 1955,
      "pchar": 1956,
      "ptr": 1957,
      "pset": 1958,
      "ptem": 1959,
      "r1": 1960,
      "r2": 1961,
      "ring": 1962,
      "ration": 1963,
      "s2": 1964,
      "sin": 1965,
      "sset": 1966,
      "slat": 1967,
      "tic": 1968,
      "till": 1969,
      "uous": 1970,
      "udent": 1971,
      "wheap": 1972,
      "y3": 1973,
      "zag": 1974,
      "zig": 1975,
      "}\\": 1976,
      "})/": 1977,
      "²+": 1978,
      "³+": 1979,
      "rep": 1980,
      "remo": 1981,
      "sts": 1982,
      "stri": 1983,
      "stop": 1984,
      "step": 1985,
      "student": 1986,
      "test": 1987,
      "then": 1988,
      "those": 1989,
      "ence": 1990,
      "delim": 1991,
      "li1": 1992,
      "li2": 1993,
      "lect": 1994,
      "lead": 1995,
      "there": 1996,
      "list_nums": 1997,
      "septem": 1998,
      "of_num": 1999,
      "mas": 2000,
      "made": 2001,
      "res_num": 2002,
      "strr": 2003,
      "str_len": 2004,
      "cho": 2005,
      "indices": 2006,
      "sum2": 2007,
      "road": 2008,
      "eles": 2009,
      "max1": 2010,
      "maxx": 2011,
      "))):": 2012,
      "dis": 2013,
      "string2": 2014,
      "elat": 2015,
      "tuple_": 2016,
      "tuple_str": 2017,
      "ity": 2018,
      "result1": 2019,
      "result2": 2020,
      "subs": 2021,
      "modif": 2022,
      "][^": 2023,
      "t_down": 2024,
      "posi": 2025,
      "mize": 2026,
      "mine": 2027,
      "ends": 2028,
      "]);": 2029,
      "arraynums": 2030,
      "char1": 2031,
      "char2": 2032,
      "accep": 2033,
      "max_char": 2034,
      "max_of_": 2035,
      "max_height": 2036,
      "max_sub_": 2037,
      "max_occurrences": 2038,
      "twice": 2039,
      "move_": 2040,
      "ev_li": 2041,
      "oddpair": 2042,
      "evenpair": 2043,
      "even_f": 2044,
      "('',": 2045,
      "(''.": 2046,
      "sort_list": 2047,
      "rent": 2048,
      "pass": 2049,
      "colnum": 2050,
      "find_gcd": 2051,
      "find_lcm": 2052,
      "find_lucas": 2053,
      "index_": 2054,
      "befo": 2055,
      "count_odd": 2056,
      "count_even": 2057,
      "count_right": 2058,
      "count_pairs": 2059,
      "count_left": 2060,
      "count_chars": 2061,
      "sorted_dict": 2062,
      "sorted_mo": 2063,
      "starts": 2064,
      "starting_char": 2065,
      "sum_odd": 2066,
      "sum_posit": 2067,
      "sum_natural": 2068,
      "sum_negat": 2069,
      "sum_series": 2070,
      "reach": 2071,
      "iling": 2072,
      "check_min_": 2073,
      "check_triplet": 2074,
      "'),": 2075,
      "occurr": 2076,
      "prodev": 2077,
      "progres": 2078,
      "divsum": 2079,
      "total_sum": 2080,
      "totalpairs": 2081,
      "large": 2082,
      "get_char": 2083,
      "get_noof": 2084,
      "get_flip": 2085,
      "get_perrin": 2086,
      "prododd": 2087,
      "ident": 2088,
      "lst2": 2089,
      "adding": 2090,
      "add_string": 2091,
      "frequent": 2092,
      "commas": 2093,
      "is_tree": 2094,
      "new_list": 2095,
      "new_str": 2096,
      "first_repeate": 2097,
      "first_ludic": 2098,
      "sqrt_": 2099,
      "rownum": 2100,
      "rawheap": 2101,
      "next_": 2102,
      "nextn": 2103,
      "common_elements": 2104,
      "square_nums": 2105,
      "multiple_": 2106,
      "dec_value": 2107,
      "replace_list": 2108,
      "nth_nums": 2109,
      "curr_price": 2110,
      "perimeter_": 2111,
      "some": 2112,
      "incr": 2113,
      "inclu": 2114,
      "[::": 2115,
      "dup_items": 2116,
      "msb": 2117,
      "float_sort": 2118,
      "roots": 2119,
      "different": 2120,
      "merge_": 2121,
      "merge_sort": 2122,
      "reverse_": 2123,
      "bit_": 2124,
      "d_age": 2125,
      "based": 2126,
      "hashset": 2127,
      "le_bits": 2128,
      "cube_nums": 2129,
      "decimal_to_": 2130,
      "right_up": 2131,
      "right_height": 2132,
      "right_most_": 2133,
      "right_down": 2134,
      "link": 2135,
      "sub_li": 2136,
      "even_ele": 2137,
      "empty_list": 2138,
      "empty_dit": 2139,
      "efficient": 2140,
      "round_and": 2141,
      "left_sum": 2142,
      "left_height": 2143,
      "sceles": 2144,
      "res_i": 2145,
      "res_j": 2146,
      "res_k": 2147,
      "res_dict": 2148,
      "freq_count": 2149,
      "multiples_": 2150,
      "flag_l": 2151,
      "flag_n": 2152,
      "coefficient": 2153,
      "common_prefix": 2154,
      "common_elem": 2155,
      "tuplex_colon": 2156,
      "modular": 2157,
      "current_item": 2158,
      "sort_counter": 2159,
      "sort_sublists": 2160,
      "multiply_int": 2161,
      "()).": 2162,
      "255": 2163,
      "256": 2164,
      "ious": 2165,
      "operation": 2166,
      "operations": 2167,
      "most_common_elem": 2168,
      "greater_specific": 2169,
      "smallest_nums": 2170,
      "smallest_missing": 2171,
      "concatenation": 2172,
      "\":\",": 2173,
      "sides": 2174,
      "change_date": 2175,
      "('[\\": 2176,
      "previous": 2177,
      "line1": 2178,
      "line2": 2179,
      ":])]": 2180,
      "_with_starting_char": 2181,
      "sumofsquares": 2182,
      "hexagonal": 2183,
      "hexadecimal": 2184,
      "char_order": 2185,
      "sample": 2186,
      "repeating": 2187,
      "flip_count": 2188,
      "opposi": 2189,
      "origx": 2190,
      "origin": 2191,
      "depth": 2192,
      "middle_bits": 2193,
      "roman_num": 2194,
      "array_3d": 2195,
      "sum_fact2": 2196,
      "text_match_word": 2197,
      "[]).": 2198,
      "nct1": 2199,
      "nct2": 2200,
      "p1x": 2201,
      "p1y": 2202,
      "num_set": 2203,
      "tri_up": 2204,
      "tri_down": 2205,
      "parabola_": 2206,
      "octalnum": 2207,
      "\\.(": 2208,
      "bigger": 2209,
      "isosceles": 2210,
      "subjectmarks": 2211,
      "find_first_missing": 2212,
      "equilateral": 2213,
      "newman_prime": 2214,
      "power_of_2": 2215,
      "combine_lists": 2216,
      "shift_down": 2217,
      "lateralsurface_": 2218,
      "permutation": 2219,
      "inversions": 2220,
      "'').": 2221,
      "_even_odd": 2222,
      "take": 2223,
      "re_arrange": 2224,
      "represents": 2225,
      "cheap_items": 2226,
      "itions": 2227,
      "quotation": 2228,
      "multiplication": 2229,
      "adverbs": 2230,
      "expensive_items": 2231,
      "]?)\\.(": 2232,
      "sum_digits_single": 2233,
      "catalan_number": 2234,
      "eulerian_num": 2235,
      "jacobsthal": 2236,
      "individual": 2237,
      "dimensional": 2238,
      ",.]\",": 2239,
      "clear": 2240,
      "dots": 2241,
      "june": 2242,
      "n_common_words": 2243,
      "od_li": 2244,
      "zigzag": 2245,
      "strip": 2246,
      "stop_val": 2247,
      "students": 2248,
      "leading": 2249,
      "september": 2250,
      "modified": 2251,
      "even_fnc": 2252,
      "before": 2253,
      "sorted_models": 2254,
      "sum_positivenum": 2255,
      "sum_negativenum": 2256,
      "check_min_heap": 2257,
      "occurring": 2258,
      "prodeven": 2259,
      "progression": 2260,
      "get_noofways": 2261,
      "get_flip_with_starting_char": 2262,
      "is_tree_balanced": 2263,
      "first_repeated_": 2264,
      "sqrt_root": 2265,
      "round_and_sum": 2266,
      "multiples_of_num": 2267,
      "greater_specificnum": 2268,
      "change_date_format": 2269,
      "opposite": 2270,
      "get_flip_with_starting_charcter": 2271,
      "!\"": 2272,
      "\"-": 2273,
      "\"',": 2274,
      "\"(.": 2275,
      "#?": 2276,
      "$\"\"": 2277,
      "&-": 2278,
      "&//=": 2279,
      "'%": 2280,
      "'('": 2281,
      "')]": 2282,
      "')))": 2283,
      "'(\\": 2284,
      "'{'": 2285,
      "'\"(.": 2286,
      "()))": 2287,
      "({}": 2288,
      ")%": 2289,
      ")[": 2290,
      ")])": 2291,
      ")\",": 2292,
      ")**": 2293,
      ")\"',": 2294,
      "*'": 2295,
      "+[": 2296,
      "+\\": 2297,
      "+~": 2298,
      "+\",": 2299,
      ",[])": 2300,
      ".'": 2301,
      ".+": 2302,
      "..": 2303,
      ".*?": 2304,
      "012": 2305,
      "22": 2306,
      "28": 2307,
      "2n": 2308,
      "200": 2309,
      "31": 2310,
      "37": 2311,
      "345": 2312,
      "40": 2313,
      "48": 2314,
      "400": 2315,
      "500": 2316,
      "67": 2317,
      "89": 2318,
      "90": 2319,
      ":%": 2320,
      "=\"": 2321,
      "={}": 2322,
      "@:%": 2323,
      "[][": 2324,
      "]$": 2325,
      "]%": 2326,
      "]-": 2327,
      "]/": 2328,
      "]{": 2329,
      "]][": 2330,
      "])))": 2331,
      "]].": 2332,
      "_c": 2333,
      "_in": 2334,
      "_the": 2335,
      "_given": 2336,
      "_array": 2337,
      "_set": 2338,
      "_lambda": 2339,
      "_pair": 2340,
      "_new": 2341,
      "_left": 2342,
      "_calc": 2343,
      "_strings": 2344,
      "_gcd": 2345,
      "_amount": 2346,
      "_duplicate": 2347,
      "_spaces": 2348,
      "_present": 2349,
      "_freq": 2350,
      "_part": 2351,
      "_type": 2352,
      "_longest": 2353,
      "_sublists": 2354,
      "_marks": 2355,
      "_duplicates": 2356,
      "_four": 2357,
      "_util": 2358,
      "_power_sum": 2359,
      "_iterable": 2360,
      "a1": 2361,
      "a2": 2362,
      "aby": 2363,
      "acos": 2364,
      "b1": 2365,
      "b2": 2366,
      "bb": 2367,
      "bri": 2368,
      "blo": 2369,
      "bed": 2370,
      "bas": 2371,
      "but": 2372,
      "bab": 2373,
      "bill": 2374,
      "blan": 2375,
      "baby": 2376,
      "ck": 2377,
      "cum": 2378,
      "car": 2379,
      "cis": 2380,
      "cending": 2381,
      "dnum": 2382,
      "dro": 2383,
      "eq": 2384,
      "et": 2385,
      "eri": 2386,
      "ese": 2387,
      "eous": 2388,
      "five": 2389,
      "fence": 2390,
      "flect": 2391,
      "gb": 2392,
      "gp": 2393,
      "gli": 2394,
      "giv": 2395,
      "gment": 2396,
      "gate": 2397,
      "gic": 2398,
      "ginn": 2399,
      "g_calc": 2400,
      "hs": 2401,
      "itu": 2402,
      "ili": 2403,
      "iation": 2404,
      "jor": 2405,
      "jan": 2406,
      "jul": 2407,
      "lh": 2408,
      "lst_": 2409,
      "m_": 2410,
      "mor": 2411,
      "mstr": 2412,
      "mlo": 2413,
      "mmetric": 2414,
      "nt": 2415,
      "nal": 2416,
      "ngcd": 2417,
      "ob": 2418,
      "ober": 2419,
      "oul": 2420,
      "odi": 2421,
      "odic": 2422,
      "ood": 2423,
      "pan": 2424,
      "phi": 2425,
      "pell": 2426,
      "rh": 2427,
      "ror": 2428,
      "rase": 2429,
      "ral_": 2430,
      "rgb": 2431,
      "sis": 2432,
      "slo": 2433,
      "slon": 2434,
      "s_of_": 2435,
      "txt": 2436,
      "ww": 2437,
      "way": 2438,
      "winter": 2439,
      "will": 2440,
      "wrd": 2441,
      "wood": 2442,
      "x3": 2443,
      "xoffset": 2444,
      "yoffset": 2445,
      "zodi": 2446,
      "{(": 2447,
      "|\\": 2448,
      "}'": 2449,
      "}\\\\": 2450,
      "})',": 2451,
      "})?": 2452,
      "….+": 2453,
      "inscri": 2454,
      "in_the": 2455,
      "inese": 2456,
      "rement": 2457,
      "remin": 2458,
      "rees": 2459,
      "regular": 2460,
      "reflect": 2461,
      "sto": 2462,
      "stree": 2463,
      "stdata": 2464,
      "tee": 2465,
      "tero": 2466,
      "on_": 2467,
      "ong": 2468,
      "once": 2469,
      "onent": 2470,
      "thir": 2471,
      "orbotto": 2472,
      "ortest": 2473,
      "umfe": 2474,
      "engli": 2475,
      "union": 2476,
      "unset_bit": 2477,
      "unset_bits": 2478,
      "ctive": 2479,
      "returns": 2480,
      "ril": 2481,
      "rigth": 2482,
      "riodic": 2483,
      "deli": 2484,
      "deco": 2485,
      "dece": 2486,
      "deter": 2487,
      "de_list": 2488,
      "deque": 2489,
      "deep": 2490,
      "demlo": 2491,
      "lite": 2492,
      "libri": 2493,
      "armstr": 2494,
      "anag": 2495,
      "they": 2496,
      "themat": 2497,
      "listx": 2498,
      "numer": 2499,
      "num_f": 2500,
      "numeri": 2501,
      "separ": 2502,
      "sequent": 2503,
      "segment": 2504,
      "error": 2505,
      "colo": 2506,
      "may": 2507,
      "marea": 2508,
      "magic": 2509,
      "major": 2510,
      "mathemat": 2511,
      "res_list": 2512,
      "respe": 2513,
      "str_to_list": 2514,
      "str_part": 2515,
      "chun": 2516,
      "chinese": 2517,
      "indented": 2518,
      "sums": 2519,
      "summer": 2520,
      "st_power_of_2": 2521,
      "ross": 2522,
      "maxlist": 2523,
      "maxlength": 2524,
      "count_list": 2525,
      "lens": 2526,
      "lenght": 2527,
      "ulating": 2528,
      "));": 2529,
      "))])": 2530,
      "ative": 2531,
      "atleast": 2532,
      "diag": 2533,
      "stringlist": 2534,
      "elt": 2535,
      "elon": 2536,
      "tuple_list": 2537,
      "hetero": 2538,
      "is_num": 2539,
      "islower": 2540,
      "isspace": 2541,
      "itself": 2542,
      "ititions": 2543,
      "result_max": 2544,
      "result_min": 2545,
      "appe": 2546,
      "april": 2547,
      "nums_str": 2548,
      "nums_set": 2549,
      "nove": 2550,
      "no_duplicate": 2551,
      "mess": 2552,
      "metic": 2553,
      "subarrays": 2554,
      "subarray_": 2555,
      "models": 2556,
      "][-": 2557,
      "irrespe": 2558,
      "check_list": 2559,
      "posts": 2560,
      "polite": 2561,
      "miter": 2562,
      "minlist": 2563,
      "minlength": 2564,
      "locate": 2565,
      "location": 2566,
      "lobb": 2567,
      "from_iterable": 2568,
      "endnum": 2569,
      "])]": 2570,
      "])',": 2571,
      "])([": 2572,
      "])[:": 2573,
      "_list_sum": 2574,
      "array_sum": 2575,
      "singly": 2576,
      "charlist": 2577,
      "consi": 2578,
      "accord": 2579,
      "accept": 2580,
      "across": 2581,
      "try": 2582,
      "ord_list": 2583,
      "max_result": 2584,
      "max_digit": 2585,
      "max_len_": 2586,
      "keith": 2587,
      "spl": 2588,
      "spring": 2589,
      "removed": 2590,
      "removewords": 2591,
      "dict3": 2592,
      "heap_sort": 2593,
      "monot": 2594,
      "odd_num": 2595,
      "odd_nums": 2596,
      "even_nums": 2597,
      "('\\": 2598,
      "('([": 2599,
      "('(.": 2600,
      "without": 2601,
      "by_": 2602,
      "word_count": 2603,
      "periodic": 2604,
      "find_ind": 2605,
      "find_sum": 2606,
      "find_longest_": 2607,
      "find_equal_": 2608,
      "index_no": 2609,
      "lengthsquare": 2610,
      "trim": 2611,
      "triangular": 2612,
      "ascending": 2613,
      "perfo": 2614,
      "beginn": 2615,
      "count_element": 2616,
      "count_array": 2617,
      "count_char": 2618,
      "count_dig": 2619,
      "count_same": 2620,
      "count_squares": 2621,
      "count_substring": 2622,
      "count_set_bits": 2623,
      "count_unset_bits": 2624,
      "pos_of_": 2625,
      "dig_": 2626,
      "startnum": 2627,
      "(\"\\": 2628,
      "sum_even_": 2629,
      "smart": 2630,
      "check_string": 2631,
      "check_subset": 2632,
      "check_type": 2633,
      "check_greater": 2634,
      "check_isosceles": 2635,
      "')):": 2636,
      "pair_": 2637,
      "proble": 2638,
      "probab": 2639,
      "absol": 2640,
      "div_of_": 2641,
      "_numeric": 2642,
      "bin_c": 2643,
      "undulating": 2644,
      "monthnum1": 2645,
      "angles": 2646,
      "remove_tuple": 2647,
      "remove_char": 2648,
      "remove_odd": 2649,
      "remove_even": 2650,
      "remove_words": 2651,
      "remove_upper": 2652,
      "remove_spaces": 2653,
      "remove_lowercase": 2654,
      "get_sum": 2655,
      "get_min_": 2656,
      "get_product": 2657,
      "get_pairs": 2658,
      "get_odd_": 2659,
      "get_inv_count": 2660,
      "get_char_": 2661,
      "get_pos_of_": 2662,
      "[]):": 2663,
      "cal_characters": 2664,
      "ing_distance": 2665,
      "exchange": 2666,
      "min_result": 2667,
      "min_of_": 2668,
      "min_jumps": 2669,
      "min_coins": 2670,
      "differ": 2671,
      "size1": 2672,
      "size2": 2673,
      "special_": 2674,
      "ctr_ele": 2675,
      "is_vali": 2676,
      "is_decimal": 2677,
      "is_palindrome": 2678,
      "is_power_of_": 2679,
      "newch": 2680,
      "new_words": 2681,
      "first_digit": 2682,
      "fox": 2683,
      "icular": 2684,
      "rows": 2685,
      "products": 2686,
      "lonian": 2687,
      "raise": 2688,
      "next_element": 2689,
      "contig": 2690,
      "zip_longest": 2691,
      "leftrange": 2692,
      "squared": 2693,
      "square_sum": 2694,
      "data_list": 2695,
      "data_type": 2696,
      "bits_set_": 2697,
      "decreasing": 2698,
      "decagonal": 2699,
      "replacement": 2700,
      "binary_to_": 2701,
      "addition": 2702,
      "nth_": 2703,
      "]+')": 2704,
      "]+(\\": 2705,
      "]+)',": 2706,
      "_flip": 2707,
      "_f_set_": 2708,
      "cn1": 2709,
      "idxn": 2710,
      "increment": 2711,
      "to_string": 2712,
      "joined": 2713,
      "until": 2714,
      "set_middle_bits": 2715,
      "differences": 2716,
      "merged": 2717,
      "iterate": 2718,
      "specified_element": 2719,
      "duplic": 2720,
      "aggre": 2721,
      "bit_set_": 2722,
      "rotation": 2723,
      "]))]": 2724,
      "fill": 2725,
      "nestedlist": 2726,
      "frequency_of_": 2727,
      "validate": 2728,
      "k_fact": 2729,
      "precis": 2730,
      "cube_sum": 2731,
      "right_child": 2732,
      "right_rotate": 2733,
      "bell_number": 2734,
      "anything": 2735,
      "_to_snake": 2736,
      "_to_camel": 2737,
      "syb": 2738,
      "symmetric": 2739,
      "sub_str": 2740,
      "even_power_sum": 2741,
      "even_bit_": 2742,
      "swap_list": 2743,
      "left_child": 2744,
      "left_rotate": 2745,
      "sci": 2746,
      "shell": 2747,
      "shrin": 2748,
      "shoul": 2749,
      "shortest": 2750,
      "unique_sublists": 2751,
      "consecutive_duplicates": 2752,
      "freq_element": 2753,
      "queue_": 2754,
      "\"\".": 2755,
      "\"\"\"^": 2756,
      "both": 2757,
      "nonagonal": 2758,
      "top_four": 2759,
      "toporbotto": 2760,
      "monthname1": 2761,
      "particular": 2762,
      "urs": 2763,
      "interchange": 2764,
      "interlea": 2765,
      "occurences": 2766,
      "datetime": 2767,
      "sort_tuple": 2768,
      "exponent": 2769,
      "lowercase_characters": 2770,
      "combinations_list": 2771,
      "combinations_with_": 2772,
      "'\\\\": 2773,
      "geneous": 2774,
      "log2": 2775,
      "log10": 2776,
      "occurance": 2777,
      "rotated": 2778,
      "fixed": 2779,
      "everything": 2780,
      "cake": 2781,
      "octagonal": 2782,
      "october": 2783,
      "ute_string": 2784,
      "dict_depth": 2785,
      "uppercase_characters": 2786,
      "ncr_mo": 2787,
      "palindromic": 2788,
      "diametersquare": 2789,
      ")+(": 2790,
      "int_bits": 2791,
      "int_part": 2792,
      "toggle_number": 2793,
      "array_nums1": 2794,
      "array_nums2": 2795,
      "162": 2796,
      "does": 2797,
      "final": 2798,
      "recursive": 2799,
      "recur_gcd": 2800,
      "make_flip": 2801,
      "chainmap": 2802,
      "luck": 2803,
      "snake_to_camel": 2804,
      "'[':": 2805,
      "\\\\+~": 2806,
      "_with_equal_": 2807,
      "buck": 2808,
      "circumfe": 2809,
      "kth_element": 2810,
      "degrees": 2811,
      "alternating": 2812,
      "hexagon": 2813,
      "highest_power_of_2": 2814,
      "trailing": 2815,
      "sum_range_list": 2816,
      "specialchar": 2817,
      "repeating_": 2818,
      "camel_to_snake": 2819,
      "concatenate_elements": 2820,
      "parenthesis": 2821,
      "aux": 2822,
      "permute_string": 2823,
      "perfect_square": 2824,
      "largest_nums": 2825,
      "excl_new": 2826,
      "capital": 2827,
      "*?'": 2828,
      "*?)\"',": 2829,
      "+','": 2830,
      "_l_and": 2831,
      "s_result": 2832,
      "tn_": 2833,
      "initial": 2834,
      "numerically": 2835,
      "maximize": 2836,
      ")),(((": 2837,
      "no_of_chars": 2838,
      "100000": 2839,
      "check_monthnumber": 2840,
      "replace_spaces": 2841,
      "parallel": 2842,
      "second_string": 2843,
      "second_large": 2844,
      "ascii_value": 2845,
      "ascii_size": 2846,
      "'}'": 2847,
      "_nnum": 2848,
      "_nos": 2849,
      "fctrsum": 2850,
      "encoding": 2851,
      "geometric_sum": 2852,
      "len_log": 2853,
      "isomor": 2854,
      "subject_marks": 2855,
      "equilibri": 2856,
      "shift": 2857,
      "permutations": 2858,
      "']':": 2859,
      "_nested_lists": 2860,
      "febr": 2861,
      "p2x": 2862,
      "p2y": 2863,
      "p3x": 2864,
      "p3y": 2865,
      "p4x": 2866,
      "p4y": 2867,
      "p5x": 2868,
      "p5y": 2869,
      "p6x": 2870,
      "p6y": 2871,
      "windchill": 2872,
      "arclength": 2873,
      "list_index": 2874,
      "sectorarea": 2875,
      "directional": 2876,
      "substract_elements": 2877,
      "all_bits_set_": 2878,
      "space_count": 2879,
      "heap_queue_": 2880,
      "find_min_sum": 2881,
      "hamming": 2882,
      "hamming_distance": 2883,
      "bases_num": 2884,
      "ditionary": 2885,
      "ordereddict": 2886,
      ")[::-": 2887,
      "_consecutive_nums": 2888,
      "avg_calc": 2889,
      "bidirectional": 2890,
      "phrase": 2891,
      "})/(\\": 2892,
      "repititions": 2893,
      "removing": 2894,
      "choose": 2895,
      "dissimilar": 2896,
      "accepted": 2897,
      "max_sub_array_sum": 2898,
      "identical": 2899,
      "including": 2900,
      "merge_dictionaries": 2901,
      "decimal_to_binary": 2902,
      "right_most_set_bit": 2903,
      "efficients": 2904,
      "common_prefix_util": 2905,
      "original": 2906,
      "text_match_wordz": 2907,
      "take_l_and": 2908,
      "first_repeated_char": 2909,
      "#?&//=": 2910,
      "$\"\"\")": 2911,
      "'\"(.*?)\"',": 2912,
      "({},": 2913,
      "012345": 2914,
      "6789": 2915,
      "_in_list": 2916,
      "_given_range": 2917,
      "block": 2918,
      "basis": 2919,
      "blank": 2920,
      "babylonian": 2921,
      "carol": 2922,
      "dnumre": 2923,
      "drop": 2924,
      "etch": 2925,
      "gives": 2926,
      "hsv": 2927,
      "itude": 2928,
      "ility": 2929,
      "january": 2930,
      "july": 2931,
      "lst_to_string": 2932,
      "nallengthsquare": 2933,
      "pancake": 2934,
      "phic": 2935,
      "slope": 2936,
      "zodiac": 2937,
      "})?$\"\"\")": 2938,
      "inscribed": 2939,
      "in_the_given_range": 2940,
      "reminder": 2941,
      "street": 2942,
      "third": 2943,
      "english": 2944,
      "rigthrange": 2945,
      "delimiter": 2946,
      "december": 2947,
      "determine": 2948,
      "deepcopy": 2949,
      "armstrong": 2950,
      "numeral": 2951,
      "num_fetch": 2952,
      "numerical_characters": 2953,
      "separate": 2954,
      "segments": 2955,
      "colours": 2956,
      "majority": 2957,
      "mathematical": 2958,
      "diagnallengthsquare": 2959,
      "heterogeneous": 2960,
      "is_num_": 2961,
      "appear": 2962,
      "november": 2963,
      "messg": 2964,
      "irrespective": 2965,
      "according": 2966,
      "monotonic": 2967,
      "odd_num_sum": 2968,
      "('(.)([": 2969,
      "word_counts": 2970,
      "find_equal_tuple": 2971,
      "perfom": 2972,
      "beginning": 2973,
      "count_digs": 2974,
      "count_substring_with_equal_": 2975,
      "problem": 2976,
      "probability": 2977,
      "absolute": 2978,
      "div_of_nums": 2979,
      "bin_coff": 2980,
      "get_min_squares": 2981,
      "get_pairs_count": 2982,
      "get_char_count_array": 2983,
      "get_pos_of_right_most_set_bit": 2984,
      "special_characters": 2985,
      "is_valid_": 2986,
      "is_power_of_two": 2987,
      "raised": 2988,
      "contiguous": 2989,
      "]+(\\.[": 2990,
      "_f_set_bits": 2991,
      "aggregate": 2992,
      "bit_set_number": 2993,
      "precision": 2994,
      "even_bit_toggle_number": 2995,
      "shrink_fact": 2996,
      "should": 2997,
      "\"\"\"^[": 2998,
      "toporbottomarea": 2999,
      "interleave": 3000,
      "combinations_with_replacement": 3001,
      "recursive_list_sum": 3002,
      "\\\\+~#?&//=": 3003,
      "circumference": 3004,
      "isomorphic": 3005,
      "equilibrium": 3006,
      "february": 3007,
      "all_bits_set_in_the_given_range": 3008,
      "take_l_and_f_set_bits": 3009,
      "0123456789": 3010,
      "count_substring_with_equal_ends": 3011,
      "!?": 3012,
      "\"+": 3013,
      "\"]": 3014,
      "\"}": 3015,
      "\"):": 3016,
      "\"(\"": 3017,
      "\"\")": 3018,
      "\"\",": 3019,
      "\"(\\": 3020,
      "\"]\"": 3021,
      "##": 3022,
      "#@": 3023,
      "$',": 3024,
      "$''": 3025,
      "$#@": 3026,
      "%=": 3027,
      "'*": 3028,
      "'+": 3029,
      "'/": 3030,
      "'{": 3031,
      "({": 3032,
      "(~": 3033,
      "([]):": 3034,
      ")\\": 3035,
      ")|": 3036,
      ")<=": 3037,
      ")\")": 3038,
      "*[": 3039,
      "*\\": 3040,
      "*$'": 3041,
      "*|\\": 3042,
      "+'": 3043,
      "+?'": 3044,
      "+)\",": 3045,
      "+)\\": 3046,
      ",\",": 3047,
      ",}\\": 3048,
      ",}'": 3049,
      "-%": 3050,
      "-\")": 3051,
      ".,": 3052,
      ".\\": 3053,
      ".]": 3054,
      ".')": 3055,
      ".'.": 3056,
      ".)?": 3057,
      ".]\\": 3058,
      ".!?": 3059,
      ".*\\": 3060,
      "01": 3061,
      "0b": 3062,
      "0s": 3063,
      "13": 3064,
      "19": 3065,
      "1s": 3066,
      "1st": 3067,
      "2d": 3068,
      "215": 3069,
      "214": 3070,
      "240": 3071,
      "32": 3072,
      "35": 3073,
      "36": 3074,
      "39": 3075,
      "3000": 3076,
      "526": 3077,
      "65": 3078,
      "637": 3079,
      "6215": 3080,
      "75": 3081,
      "748": 3082,
      "82": 3083,
      "88": 3084,
      "97": 3085,
      "9_": 3086,
      "900": 3087,
      ":[": 3088,
      ":],": 3089,
      ":]:": 3090,
      ":]):": 3091,
      ":]+": 3092,
      ":].": 3093,
      ":##": 3094,
      "<<=": 3095,
      "=<": 3096,
      "=[[": 3097,
      "?\\": 3098,
      "@]\\": 3099,
      "[\"": 3100,
      "[{": 3101,
      "[('": 3102,
      "[],": 3103,
      "[[]": 3104,
      "[{}": 3105,
      "[''": 3106,
      "[(),": 3107,
      "]'": 3108,
      "]<": 3109,
      "]])": 3110,
      "]]:": 3111,
      "]$'": 3112,
      "]=='": 3113,
      "]]));": 3114,
      "^)]": 3115,
      "^([": 3116,
      "_b": 3117,
      "_k": 3118,
      "_le": 3119,
      "_at": 3120,
      "_end": 3121,
      "_up": 3122,
      "_key": 3123,
      "_ip": 3124,
      "_word": 3125,
      "_index": 3126,
      "_pos": 3127,
      "_first_": 3128,
      "_extract": 3129,
      "_row": 3130,
      "_last": 3131,
      "_bits": 3132,
      "_same": 3133,
      "_triangle": 3134,
      "_three": 3135,
      "_contain": 3136,
      "_position": 3137,
      "_base": 3138,
      "_rect": 3139,
      "_sign": 3140,
      "_k_": 3141,
      "_lat": 3142,
      "_squares": 3143,
      "_empty": 3144,
      "_consecut": 3145,
      "_positive": 3146,
      "_divisors": 3147,
      "_order": 3148,
      "_tuplex": 3149,
      "_point": 3150,
      "_lowercase": 3151,
      "_season": 3152,
      "_substring": 3153,
      "_uppercase": 3154,
      "_factorial": 3155,
      "_ae": 3156,
      "_chars": 3157,
      "_factors": 3158,
      "_rotations": 3159,
      "_xor": 3160,
      "_change": 3161,
      "_palindrome": 3162,
      "_literal": 3163,
      "_long": 3164,
      "_cylinder": 3165,
      "_complex": 3166,
      "_grid": 3167,
      "_distance": 3168,
      "_literals": 3169,
      "_rear": 3170,
      "_colors": 3171,
      "_radian": 3172,
      "_degree": 3173,
      "_alternate": 3174,
      "_rd": 3175,
      "_enco": 3176,
      "_subseq": 3177,
      "_last_digit": 3178,
      "_inverse": 3179,
      "_validity": 3180,
      "_lines": 3181,
      "_linear": 3182,
      "_chill": 3183,
      "_circle": 3184,
      "_polygons": 3185,
      "_middle": 3186,
      "_trend": 3187,
      "_trapezium": 3188,
      "_underscore": 3189,
      "_test": 3190,
      "_bit_": 3191,
      "_coefficient": 3192,
      "_smallest_nums": 3193,
      "_middle_bits": 3194,
      "_bigger": 3195,
      "_by_": 3196,
      "_dig_": 3197,
      "_repeating_": 3198,
      "_hamming_distance": 3199,
      "_zodiac": 3200,
      "_segments": 3201,
      "ai": 3202,
      "ax": 3203,
      "amax": 3204,
      "amin": 3205,
      "acu": 3206,
      "actions": 3207,
      "ams": 3208,
      "aug": 3209,
      "a_end": 3210,
      "bz": 3211,
      "ball": 3212,
      "brow": 3213,
      "bors": 3214,
      "bute": 3215,
      "brev": 3216,
      "b_position": 3217,
      "ctu": 3218,
      "cer": 3219,
      "cing": 3220,
      "cip": 3221,
      "cise": 3222,
      "cente": 3223,
      "centered": 3224,
      "cs_of_": 3225,
      "dn": 3226,
      "don": 3227,
      "dno": 3228,
      "day": 3229,
      "dra": 3230,
      "est": 3231,
      "eps": 3232,
      "fy": 3233,
      "fli": 3234,
      "fra": 3235,
      "fron": 3236,
      "ging": 3237,
      "give": 3238,
      "gral": 3239,
      "greate": 3240,
      "gral_": 3241,
      "g_nnum": 3242,
      "hor": 3243,
      "hare": 3244,
      "how": 3245,
      "ix": 3246,
      "ite": 3247,
      "iate": 3248,
      "igh": 3249,
      "ilateral": 3250,
      "imize": 3251,
      "klist": 3252,
      "ln": 3253,
      "lt_": 3254,
      "lapp": 3255,
      "lps": 3256,
      "lbs": 3257,
      "lcopy": 3258,
      "lcs_of_": 3259,
      "mt": 3260,
      "msp": 3261,
      "mut": 3262,
      "many": 3263,
      "ner": 3264,
      "ntimes": 3265,
      "ox": 3266,
      "ost": 3267,
      "oth": 3268,
      "ole": 3269,
      "oes": 3270,
      "ops": 3271,
      "pun": 3272,
      "pac": 3273,
      "put": 3274,
      "pic": 3275,
      "pig": 3276,
      "pack": 3277,
      "plan": 3278,
      "q_subseq": 3279,
      "rary": 3280,
      "rty": 3281,
      "sst": 3282,
      "siv": 3283,
      "sat": 3284,
      "she": 3285,
      "soc": 3286,
      "scal": 3287,
      "sd_": 3288,
      "sending": 3289,
      "tion": 3290,
      "tit": 3291,
      "tain": 3292,
      "tonic": 3293,
      "tiling": 3294,
      "titions": 3295,
      "vice": 3296,
      "we": 3297,
      "wil": 3298,
      "wid": 3299,
      "ward": 3300,
      "xc": 3301,
      "xl": 3302,
      "ype": 3303,
      "zy": 3304,
      "{\"(\"": 3305,
      "|,": 3306,
      "|^([": 3307,
      "}}": 3308,
      "}))": 3309,
      "}$'": 3310,
      "}?'": 3311,
      "².": 3312,
      "³.": 3313,
      "’.": 3314,
      "inside": 3315,
      "infin": 3316,
      "in_range": 3317,
      "in_nested_lists": 3318,
      "real": 3319,
      "rearr": 3320,
      "red_": 3321,
      "recip": 3322,
      "std": 3323,
      "stand": 3324,
      "stoc": 3325,
      "stive": 3326,
      "station": 3327,
      "steps": 3328,
      "tes": 3329,
      "ones": 3330,
      "ture": 3331,
      "tuse": 3332,
      "this": 3333,
      "thod": 3334,
      "thmetic": 3335,
      ")://": 3336,
      "):]+": 3337,
      "or_sum": 3338,
      "or_odd": 3339,
      "ene": 3340,
      "ences": 3341,
      "unequal": 3342,
      "ctric": 3343,
      "ctbill": 3344,
      "rned": 3345,
      "return_sum": 3346,
      "rify": 3347,
      "del": 3348,
      "des": 3349,
      "dele": 3350,
      "delan": 3351,
      "lie": 3352,
      "lica": 3353,
      "liams": 3354,
      "led": 3355,
      "let_": 3356,
      "toge": 3357,
      "arbit": 3358,
      "ant_": 3359,
      "ances": 3360,
      "anks": 3361,
      "ancing": 3362,
      "anging": 3363,
      "them": 3364,
      "themetic": 3365,
      "func": 3366,
      "list_to_": 3367,
      "list_tuple": 3368,
      "listify": 3369,
      "numstr": 3370,
      "alter": 3371,
      "allow": 3372,
      "semic": 3373,
      "select": 3374,
      "ercise": 3375,
      "ific": 3376,
      "forms": 3377,
      "forward": 3378,
      "ofpath": 3379,
      "cores": 3380,
      "come": 3381,
      "coprime": 3382,
      "struc": 3383,
      "str_to_tuple": 3384,
      "chr": 3385,
      "chklist": 3386,
      "iv_list": 3387,
      "tup_string": 3388,
      "find_lists": 3389,
      "ange_string": 3390,
      "summat": 3391,
      "range_in_list": 3392,
      "number_of_": 3393,
      "st_num": 3394,
      "rocal": 3395,
      "roost": 3396,
      "electric": 3397,
      "maxaverage": 3398,
      "maxgold": 3399,
      "counting": 3400,
      "counting_": 3401,
      "ulative": 3402,
      "))*": 3403,
      "))+": 3404,
      "))/": 3405,
      "))>": 3406,
      "))[": 3407,
      ")))]": 3408,
      "))//": 3409,
      "))),": 3410,
      "))**": 3411,
      "attri": 3412,
      "atype": 3413,
      "disp": 3414,
      "disc": 3415,
      "dirty": 3416,
      "string_list": 3417,
      "string_length": 3418,
      "string_to_tuple": 3419,
      "string_to_list": 3420,
      "string_literals": 3421,
      "ely": 3422,
      "ellip": 3423,
      "test_three": 3424,
      "test_duplicate": 3425,
      "test_distinct": 3426,
      "pyra": 3427,
      "ceil": 3428,
      "entring": 3429,
      "tuple_size": 3430,
      "ortlist": 3431,
      "suface": 3432,
      "isfi": 3433,
      "issubset": 3434,
      "issort_list": 3435,
      "isnt": 3436,
      "ap_sum": 3437,
      "elementwise": 3438,
      "lay": 3439,
      "lable": 3440,
      "lazy": 3441,
      "noy": 3442,
      "not_": 3443,
      "noprofit": 3444,
      "quic": 3445,
      "method": 3446,
      "and_tuples": 3447,
      "and_even_": 3448,
      "and_rear": 3449,
      "sub_list": 3450,
      "sub_lists": 3451,
      "substar": 3452,
      "modd": 3453,
      "vals": 3454,
      "iral": 3455,
      "t_with": 3456,
      "t_list_": 3457,
      "t_and_rear": 3458,
      "postive": 3459,
      "minim": 3460,
      "min_num": 3461,
      "minimize": 3462,
      "minoes": 3463,
      "curences": 3464,
      "custo": 3465,
      "fromkeys": 3466,
      "end_num": 3467,
      "])}": 3468,
      "])])": 3469,
      "])\",": 3470,
      "]).*\\": 3471,
      "_list_lists": 3472,
      "_list_range": 3473,
      "arest": 3474,
      "areequivalent": 3475,
      "are_equal": 3476,
      "are_rotations": 3477,
      "singlet": 3478,
      "verify": 3479,
      "conten": 3480,
      "concat": 3481,
      "conway": 3482,
      "acke": 3483,
      "trans": 3484,
      "neigh": 3485,
      "nearest": 3486,
      "max_num": 3487,
      "max_prime": 3488,
      "max_volume": 3489,
      "max_difference": 3490,
      "max_profit": 3491,
      "max_occur": 3492,
      "max_similar": 3493,
      "max_sum_of_": 3494,
      "max_run": 3495,
      "max_abs": 3496,
      "max_chain": 3497,
      "max_path": 3498,
      "max_subarray_": 3499,
      "max_specialchar": 3500,
      "max_aggregate": 3501,
      "valueerror": 3502,
      "all_characters": 3503,
      "all_nnum": 3504,
      "versa": 3505,
      "move_num": 3506,
      "sponding": 3507,
      "spiral": 3508,
      "removezero": 3509,
      "remove_list_range": 3510,
      "ed_specific": 3511,
      "inting": 3512,
      "intgral_": 3513,
      "dict_f": 3514,
      "upto": 3515,
      "upto_": 3516,
      "update": 3517,
      "heapreplace": 3518,
      "monkey": 3519,
      "maths": 3520,
      "((((": 3521,
      "(((-": 3522,
      "even_num": 3523,
      "twoparts": 3524,
      "('%": 3525,
      "('-": 3526,
      "(';": 3527,
      "(')',": 3528,
      "('\\.": 3529,
      "('(',": 3530,
      "('..": 3531,
      "('.'.": 3532,
      "()}": 3533,
      "()])": 3534,
      "key_present": 3535,
      "keyerror": 3536,
      "sorting": 3537,
      "sort_string": 3538,
      "sort_numeric": 3539,
      "lowest": 3540,
      ")],": 3541,
      ")]:": 3542,
      ")]))": 3543,
      ")]+=": 3544,
      ")])))": 3545,
      "iple_": 3546,
      "painting": 3547,
      "word_present": 3548,
      "find_element": 3549,
      "find_char": 3550,
      "find_index": 3551,
      "find_length": 3552,
      "find_tuples": 3553,
      "find_character": 3554,
      "find_angle": 3555,
      "find_min_": 3556,
      "find_diff": 3557,
      "find_minimum": 3558,
      "find_product": 3559,
      "find_digits": 3560,
      "find_volume": 3561,
      "find_rect": 3562,
      "find_k_": 3563,
      "find_even_": 3564,
      "find_average": 3565,
      "find_parity": 3566,
      "find_divisor": 3567,
      "find_missing": 3568,
      "find_odd_": 3569,
      "find_combinations": 3570,
      "find_substring": 3571,
      "find_max_val": 3572,
      "find_last_": 3573,
      "find_rotations": 3574,
      "find_ways": 3575,
      "find_kth": 3576,
      "find_char_": 3577,
      "find_long": 3578,
      "find_plat": 3579,
      "find_max_length": 3580,
      "find_min_length": 3581,
      "find_literals": 3582,
      "find_clo": 3583,
      "find_trip": 3584,
      "find_points": 3585,
      "find_remainder": 3586,
      "find_star": 3587,
      "find_min_swaps": 3588,
      "find_extra": 3589,
      "find_adver": 3590,
      "find_adverbs": 3591,
      "find_demlo": 3592,
      "find_max_len_": 3593,
      "find_nth_": 3594,
      "find_rotation": 3595,
      "find_exponent": 3596,
      "find_fixed": 3597,
      "find_dissimilar": 3598,
      "find_max_num": 3599,
      "index_list": 3600,
      "lengths": 3601,
      "length_sum": 3602,
      "length_of_": 3603,
      "assending": 3604,
      "become": 3605,
      "count_x": 3606,
      "count_num": 3607,
      "count_no": 3608,
      "count_charac": 3609,
      "count_integer": 3610,
      "count_first_": 3611,
      "count_common": 3612,
      "count_digits": 3613,
      "count_digit": 3614,
      "count_divisors": 3615,
      "count_tuplex": 3616,
      "count_odd_": 3617,
      "count_occurrence": 3618,
      "count_vowels": 3619,
      "count_alpha": 3620,
      "count_substrings": 3621,
      "count_ways": 3622,
      "count_with_": 3623,
      "count_primes": 3624,
      "count_char_": 3625,
      "count_no_of_": 3626,
      "count_binary_": 3627,
      "count_fac": 3628,
      "count_rectangles": 3629,
      "count_variable": 3630,
      "count_reverse_": 3631,
      "count_hexadecimal": 3632,
      "count_duplic": 3633,
      "count_rotation": 3634,
      "count_occurance": 3635,
      "count_bidirectional": 3636,
      "count_range_in_list": 3637,
      "count_intgral_": 3638,
      "pos_nos": 3639,
      "matching": 3640,
      "match_num": 3641,
      "matching_": 3642,
      "sorted_list": 3643,
      "starta_end": 3644,
      "','')": 3645,
      "(\"(": 3646,
      "(\"-": 3647,
      "(\"((": 3648,
      "sum_num": 3649,
      "sum_elements": 3650,
      "sum_even": 3651,
      "sum_div": 3652,
      "sum_pairs": 3653,
      "sum_square": 3654,
      "sum_three": 3655,
      "sum_difference": 3656,
      "sum_average": 3657,
      "sum_repeated": 3658,
      "sum_path": 3659,
      "sum_column": 3660,
      "sum_gp": 3661,
      "sum_in_range": 3662,
      "small_nnum": 3663,
      "maximum_sum": 3664,
      "maximum_value": 3665,
      "maximum_product": 3666,
      "maximum_segments": 3667,
      "charactes": 3668,
      "ilter": 3669,
      "ilway": 3670,
      "check_k": 3671,
      "check_str": 3672,
      "check_char": 3673,
      "check_value": 3674,
      "check_ip": 3675,
      "check_tuples": 3676,
      "check_integer": 3677,
      "check_last": 3678,
      "check_none": 3679,
      "check_triangle": 3680,
      "check_vow": 3681,
      "check_valid": 3682,
      "check_k_": 3683,
      "check_even_": 3684,
      "check_consecutive": 3685,
      "check_tuplex": 3686,
      "check_date": 3687,
      "check_odd_": 3688,
      "check_substring": 3689,
      "check_distinct": 3690,
      "check_literals": 3691,
      "check_email": 3692,
      "check_subset_": 3693,
      "check_smaller": 3694,
      "check_validity": 3695,
      "check_abundant": 3696,
      "check_expression": 3697,
      "check_alphanumeric": 3698,
      "check_permutation": 3699,
      "check_occurences": 3700,
      "check_identical": 3701,
      "check_concat": 3702,
      "')'": 3703,
      "')')": 3704,
      "pairwise": 3705,
      "pair_diff": 3706,
      "uting": 3707,
      "proper": 3708,
      "abbrev": 3709,
      "div_list": 3710,
      "divid": 3711,
      "div_even_odd": 3712,
      "\")\",": 3713,
      "_numbs": 3714,
      "_num_product": 3715,
      "month_season": 3716,
      "total_number": 3717,
      "total_hamming_distance": 3718,
      "angle_complex": 3719,
      "remove_elements": 3720,
      "remove_length": 3721,
      "remove_tuples": 3722,
      "remove_dat": 3723,
      "remove_neg": 3724,
      "remove_nested": 3725,
      "remove_similar": 3726,
      "remove_uppercase": 3727,
      "remove_column": 3728,
      "remove_occ": 3729,
      "remove_whitespaces": 3730,
      "remove_all_": 3731,
      "remove_extra": 3732,
      "remove_rep": 3733,
      "remove_multiple_": 3734,
      "remove_spl": 3735,
      "remove_duplic": 3736,
      "remove_kth_element": 3737,
      "remove_parenthesis": 3738,
      "remove_dirty": 3739,
      "remove_matching_": 3740,
      "larg_nnum": 3741,
      "dif_square": 3742,
      "integral": 3743,
      "places": 3744,
      "search_literal": 3745,
      "get_number": 3746,
      "get_item": 3747,
      "get_key": 3748,
      "get_first_": 3749,
      "get_equal": 3750,
      "get_gcd": 3751,
      "get_position": 3752,
      "get_unique": 3753,
      "get_lcm": 3754,
      "get_median": 3755,
      "get_max_sum": 3756,
      "get_ludic": 3757,
      "get_coordinates": 3758,
      "get_pell": 3759,
      "get_carol": 3760,
      "get_maxgold": 3761,
      "get_max_occur": 3762,
      "get_total_number": 3763,
      "),(": 3764,
      "[]:": 3765,
      "cal_sum": 3766,
      "cal_ele": 3767,
      "ing_dictionary": 3768,
      "prod_square": 3769,
      "exit": 3770,
      "exercise": 3771,
      "min_k": 3772,
      "min_max": 3773,
      "min_product": 3774,
      "min_cost": 3775,
      "min_difference": 3776,
      "min_flip": 3777,
      "min_operations": 3778,
      "min_ops": 3779,
      "min_sum_path": 3780,
      "convert_list_": 3781,
      "diff_one": 3782,
      "diff_even_odd": 3783,
      "diff_consecut": 3784,
      "converts": 3785,
      "convertible": 3786,
      "sizeof": 3787,
      "]::": 3788,
      "add_list": 3789,
      "add__": 3790,
      "add_lists": 3791,
      "add_tuple": 3792,
      "add_str": 3793,
      "add_nested": 3794,
      "add_pair": 3795,
      "add_consecutive_nums": 3796,
      "add_k_": 3797,
      "al_number": 3798,
      "al_words": 3799,
      "al_lucas": 3800,
      "values_string": 3801,
      "prime_num": 3802,
      "comm_": 3803,
      "is_odd": 3804,
      "is_even": 3805,
      "is_diff": 3806,
      "is_product": 3807,
      "is_lower": 3808,
      "is_same": 3809,
      "is_triangle": 3810,
      "is_upper": 3811,
      "is_sub_": 3812,
      "is_subset": 3813,
      "is_sublist": 3814,
      "is_sum_of_": 3815,
      "is_two_": 3816,
      "is_abundant": 3817,
      "is_wood": 3818,
      "is_polite": 3819,
      "is_undulating": 3820,
      "is_nonagonal": 3821,
      "is_octagonal": 3822,
      "is_perfect_square": 3823,
      "is_majority": 3824,
      "is_monotonic": 3825,
      "is_isomorphic": 3826,
      "is_allow": 3827,
      "is_coprime": 3828,
      "is_not_": 3829,
      "is_key_present": 3830,
      "is_word_present": 3831,
      "minimum_length": 3832,
      "earned": 3833,
      "new_tuple": 3834,
      "first_element": 3835,
      "first_non": 3836,
      "first_factor": 3837,
      "first_missing": 3838,
      "extract_string": 3839,
      "extract_elements": 3840,
      "product_equal": 3841,
      "longer": 3842,
      "rams": 3843,
      "raw_": 3844,
      "railway": 3845,
      "rightmost": 3846,
      "([(": 3847,
      "([-": 3848,
      "([^)]": 3849,
      "zip_list": 3850,
      "zip_tuples": 3851,
      "powers": 3852,
      "powers_of_": 3853,
      "power_base": 3854,
      "square_perimeter": 3855,
      "lowerstring": 3856,
      "words_ae": 3857,
      "breaksum": 3858,
      "nam": 3859,
      "digit_distance": 3860,
      "binary1": 3861,
      "calculate_polygons": 3862,
      "nth_items": 3863,
      "nth_element": 3864,
      "]+',": 3865,
      "_f_and": 3866,
      ")))*": 3867,
      ")));": 3868,
      "joint": 3869,
      "groups": 3870,
      "group_element": 3871,
      "group_tuples": 3872,
      "group_key": 3873,
      "grouping_dictionary": 3874,
      "same_length": 3875,
      "same_order": 3876,
      "to_tuple": 3877,
      "to_single": 3878,
      "to_roman": 3879,
      "triangles": 3880,
      "triangle_area": 3881,
      "surface_area": 3882,
      "join_tuples": 3883,
      "[::])": 3884,
      "[::-": 3885,
      "said": 3886,
      "floating": 3887,
      "float_to_tuple": 3888,
      "[-(": 3889,
      "repetitions": 3890,
      "three_consecutive": 3891,
      "'.',": 3892,
      "my_dict": 3893,
      "set_left_": 3894,
      "set_right_most_": 3895,
      "set_to_tuple": 3896,
      "upperstring": 3897,
      "position_max": 3898,
      "position_min": 3899,
      "merge_dict": 3900,
      "iterator": 3901,
      "otherside": 3902,
      "reverse_string": 3903,
      "reverse_words": 3904,
      "reverse_list_lists": 3905,
      "getsizeof": 3906,
      "duplican": 3907,
      "_of_triangle": 3908,
      "_of_cube": 3909,
      "_of_sequences": 3910,
      "bitonic": 3911,
      "d_p": 3912,
      "neg_nos": 3913,
      "frequenci": 3914,
      "]))))])": 3915,
      "filled": 3916,
      "computing": 3917,
      "frequency_lists": 3918,
      "signific": 3919,
      "[[[": 3920,
      "k_tuples": 3921,
      "k_smallest_": 3922,
      "k_consecutive_duplicates": 3923,
      "le_circumference": 3924,
      "matrix_to_list": 3925,
      "inputs": 3926,
      "right_insertion": 3927,
      "latitude": 3928,
      "comb_sort": 3929,
      "filter_data": 3930,
      "filter_odd": 3931,
      "filter_even": 3932,
      "_string_alternate": 3933,
      "_to_int": 3934,
      "_to_make": 3935,
      "_to_hsv": 3936,
      "conseq_subseq": 3937,
      "even_position": 3938,
      "even_binomial_coeff": 3939,
      "even_bit_set_number": 3940,
      "even_or_odd": 3941,
      "swapcase": 3942,
      "swap_count": 3943,
      "swap_numbers": 3944,
      "zero_count": 3945,
      "zero_one": 3946,
      "**-": 3947,
      "tiger": 3948,
      "round_num": 3949,
      "round_up": 3950,
      "left_insertion": 3951,
      "contains__": 3952,
      "120": 3953,
      "shanks": 3954,
      "shortlist": 3955,
      "{};": 3956,
      "seq_linear": 3957,
      "unique_nums": 3958,
      "unique_element": 3959,
      "unique_characters": 3960,
      "unique_product": 3961,
      "years": 3962,
      "positive_count": 3963,
      "multiples": 3964,
      "average_tuple": 3965,
      "average_odd": 3966,
      "average_even": 3967,
      "\"\";": 3968,
      ")...": 3969,
      "]]]": 3970,
      "board": 3971,
      "boole": 3972,
      "nc0": 3973,
      "topbotto": 3974,
      "median_numbers": 3975,
      "median_trapezium": 3976,
      "text_lowercase": 3977,
      "text_uppercase": 3978,
      "text_starta_end": 3979,
      "extract_max": 3980,
      "extract_even": 3981,
      "extract_values": 3982,
      "extract_unique": 3983,
      "extract_freq": 3984,
      "extract_missing": 3985,
      "extract_date": 3986,
      "extract_column": 3987,
      "extract_rear": 3988,
      "extract_quotation": 3989,
      "extract_singly": 3990,
      "extract_symmetric": 3991,
      "extract_index_list": 3992,
      "extract_min_max": 3993,
      "extract_nth_element": 3994,
      "common_element": 3995,
      "common_in_nested_lists": 3996,
      "'''^": 3997,
      ")/(": 3998,
      "prism": 3999,
      "partition": 4000,
      "interval": 4001,
      "ularly": 4002,
      "lateralsuface": 4003,
      "subsets": 4004,
      "types": 4005,
      "0007": 4006,
      "longest_subseq": 4007,
      "negative_count": 4008,
      "__lt_": 4009,
      "__add__": 4010,
      "__contains__": 4011,
      "outside": 4012,
      "max_sum_list": 4013,
      "odd_position": 4014,
      "odd_days": 4015,
      "odd_factors": 4016,
      "odd_setbits": 4017,
      "odd_equivalent": 4018,
      "odd_bit_set_number": 4019,
      "odd_length_sum": 4020,
      "odd_values_string": 4021,
      "sort_matrix": 4022,
      "sort_dict_": 4023,
      "sort_mixed_list": 4024,
      "sort_on_": 4025,
      "sort_by_": 4026,
      "multiplying": 4027,
      "multiply_list": 4028,
      "multiply_num": 4029,
      "multiply_elements": 4030,
      "profit_amount": 4031,
      "binomial_probability": 4032,
      "combinations_colors": 4033,
      "adjacents": 4034,
      "adjacent_num_product": 4035,
      "gorian": 4036,
      "distances": 4037,
      "most_occurrences": 4038,
      "most_unset_bit": 4039,
      "occuring": 4040,
      "rotate_right": 4041,
      "rotate_left": 4042,
      "text_match_string": 4043,
      "follows": 4044,
      "[(*": 4045,
      "[(-": 4046,
      "balancing": 4047,
      "octal_to_": 4048,
      "similar_elements": 4049,
      "sum_of_product": 4050,
      "sum_of_digits": 4051,
      "sum_of_square": 4052,
      "sum_of_series": 4053,
      "sum_of_primes": 4054,
      "sum_of_alternate": 4055,
      "sum_of_inverse": 4056,
      "sum_of_subarray_": 4057,
      "sum_of_odd_factors": 4058,
      "smallest_num": 4059,
      "smallest_multiple": 4060,
      "smallest_divisor": 4061,
      "smallest_palindrome": 4062,
      "rectangle_area": 4063,
      "rectangle_perimeter": 4064,
      "diameter_circle": 4065,
      "]*'": 4066,
      "]*)\")": 4067,
      "int_str": 4068,
      "int_to_roman": 4069,
      "toggle_string": 4070,
      "toggle_middle_bits": 4071,
      "toggle_f_and": 4072,
      "last_word": 4073,
      "last_letters": 4074,
      "last_occurence": 4075,
      "last_two_": 4076,
      "increasing_subseq": 4077,
      "increasing_trend": 4078,
      "dominoes": 4079,
      "recursiv": 4080,
      "series_sum": 4081,
      "coin_change": 4082,
      "chains": 4083,
      "ircle": 4084,
      "ordinates": 4085,
      "performing": 4086,
      "divisible_number": 4087,
      "divisible_by_": 4088,
      "lucid": 4089,
      "palindromes": 4090,
      "palindrome_lambda": 4091,
      "discriminant_": 4092,
      "\".*[": 4093,
      "'['": 4094,
      "'[^": 4095,
      "_with_diff_one": 4096,
      "circle_circumference": 4097,
      "circularly": 4098,
      "mul_list": 4099,
      "mul_even_odd": 4100,
      "mulative": 4101,
      "mul_consecutive_nums": 4102,
      "when": 4103,
      "insert_": 4104,
      "sumoffactors": 4105,
      "char_frequency": 4106,
      "paths": 4107,
      "colon_tuplex": 4108,
      "(\"[$#@": 4109,
      "existing": 4110,
      "long_words": 4111,
      "longitude": 4112,
      "[:-(": 4113,
      "repeat_tuples": 4114,
      "generated": 4115,
      "generate_matrix": 4116,
      "concatenate_tuple": 4117,
      "concatenate_nested": 4118,
      "concatenate_strings": 4119,
      "flatten_list": 4120,
      "flatten_tuple": 4121,
      "'^\\": 4122,
      "'))):": 4123,
      "augest": 4124,
      "arithmetic": 4125,
      "arithemetic": 4126,
      "option": 4127,
      "platforms": 4128,
      "origy": 4129,
      "ivenums": 4130,
      "summing": 4131,
      "distance_lat": 4132,
      "roman_to_int": 4133,
      "array_upto_": 4134,
      "array_sum_repeated": 4135,
      "max_length_list": 4136,
      "perfect_squares": 4137,
      "largest_pos": 4138,
      "largest_triangle": 4139,
      "largest_neg": 4140,
      "largest_subset": 4141,
      "largest_palindrome": 4142,
      "min_length_list": 4143,
      "radix_sort": 4144,
      "ugly_number": 4145,
      "intersection_array": 4146,
      "intersection_nested_lists": 4147,
      "alphabet": 4148,
      "alphabetic": 4149,
      "text_match_one": 4150,
      "text_match_three": 4151,
      "text_match_two_": 4152,
      "text_match_zero_one": 4153,
      "amicable_numbers": 4154,
      "capital_words": 4155,
      "\"[,": 4156,
      "\"[\":": 4157,
      ".',]": 4158,
      "_l_bits": 4159,
      "_indices": 4160,
      "_squareroot": 4161,
      "_square_test": 4162,
      "s_key": 4163,
      "rear_extract": 4164,
      "rearange_string": 4165,
      "num_position": 4166,
      "num_cores": 4167,
      "num_comm_": 4168,
      "no_of_triangle": 4169,
      "no_of_subsequences": 4170,
      "no_of_cubes": 4171,
      "peak": 4172,
      "1000000": 4173,
      "check_equilateral": 4174,
      "occcurences": 4175,
      "divided": 4176,
      "floor_max": 4177,
      "floor_min": 4178,
      "replace_char": 4179,
      "replace_specialchar": 4180,
      "replace_blank": 4181,
      "replace_max_specialchar": 4182,
      "volume_cube": 4183,
      "volume_cylinder": 4184,
      "volume_cuboid": 4185,
      "volume_cone": 4186,
      "volume_sphere": 4187,
      "volume_tetrahedron": 4188,
      "set_bit_number": 4189,
      "set_bit_pos": 4190,
      "radian_degree": 4191,
      "compute_last_digit": 4192,
      "second_smallest": 4193,
      "second_frequent": 4194,
      "degree_radian": 4195,
      "alternate_elements": 4196,
      "parentheses": 4197,
      "bisect_right": 4198,
      "bisect_left": 4199,
      "tetrahedral": 4200,
      "tetrahedral_": 4201,
      "'}:": 4202,
      "['*'": 4203,
      "_noloss": 4204,
      "big_sum": 4205,
      "big_diff": 4206,
      "corner": 4207,
      "han_k": 4208,
      "overlapp": 4209,
      "encoded": 4210,
      "encode_list": 4211,
      "len_complex": 4212,
      "polar_rect": 4213,
      "loss_amount": 4214,
      "access_key": 4215,
      "max_sum_increasing_subsequence": 4216,
      "max_sum_subseq": 4217,
      "max_sum_rectangular": 4218,
      "max_sum_pair_diff": 4219,
      "max_sum_increasing_subseq": 4220,
      "two_parts": 4221,
      "two_unique_nums": 4222,
      "find_first_duplicate": 4223,
      "find_first_occurrence": 4224,
      "find_peak": 4225,
      "ram_lambda": 4226,
      "continuous": 4227,
      "split_list": 4228,
      "split_arr": 4229,
      "split_lowerstring": 4230,
      "split_upperstring": 4231,
      "split_two_parts": 4232,
      "surfacearea_cube": 4233,
      "surfacearea_cylinder": 4234,
      "surfacearea_cuboid": 4235,
      "surfacearea_cone": 4236,
      "surfacearea_sphere": 4237,
      "last_digit_factorial": 4238,
      "dog_age": 4239,
      "sample_nam": 4240,
      "closest_num": 4241,
      "super_ugly_number": 4242,
      "divides": 4243,
      "http": 4244,
      "inversion_elements": 4245,
      "']')):": 4246,
      "ial_search": 4247,
      "ial_divisible_number": 4248,
      "taking": 4249,
      "wind_chill": 4250,
      "re_order": 4251,
      "representing": 4252,
      "rearranged": 4253,
      "rearrange_bigger": 4254,
      "rearrange_numbs": 4255,
      "start_with": 4256,
      "deviation": 4257,
      "arc_length": 4258,
      "list_split": 4259,
      "sector_area": 4260,
      "tuple_to_set": 4261,
      "tuple_to_int": 4262,
      "tuple_to_dict": 4263,
      "tuple_to_float": 4264,
      "quotient": 4265,
      "rombus_area": 4266,
      "rombus_perimeter": 4267,
      "max_product_tuple": 4268,
      "all_unique": 4269,
      "heap_replace": 4270,
      "heap_assending": 4271,
      "assign_elements": 4272,
      "assign_freq": 4273,
      "area_polygon": 4274,
      "area_tetrahedron": 4275,
      "area_pentagon": 4276,
      "area_trapezium": 4277,
      "\",\"\")": 4278,
      "add_dict_to_tuple": 4279,
      "extraction": 4280,
      "division_elements": 4281,
      "multiplied": 4282,
      "]+[\\.": 4283,
      "]+[@]\\": 4284,
      "validity_triangle": 4285,
      "bitwise_xor": 4286,
      "basesnum_cores": 4287,
      "]?)$''": 4288,
      "fourth_power_sum": 4289,
      "capitalize_first_": 4290,
      "inner_list": 4291,
      "sum_digits_twoparts": 4292,
      "check_monthnumb": 4293,
      "check_monthnum_number": 4294,
      "check_monthnumb_number": 4295,
      "parallelogram_area": 4296,
      "parallelogram_perimeter": 4297,
      "access_elements": 4298,
      "bottom": 4299,
      "fifth_power_sum": 4300,
      "jacobsthal_lucas": 4301,
      "individually": 4302,
      "\"{\":": 4303,
      "\"))>=": 4304,
      "::]+": 4305,
      "://)))": 4306,
      "=(((-": 4307,
      "_one_bit_": 4308,
      "_rightangle": 4309,
      "avai": 4310,
      "bracke": 4311,
      "gregorian": 4312,
      "phase": 4313,
      "})/',": 4314,
      "²+….+": 4315,
      "³+….+": 4316,
      "removals": 4317,
      "chosen": 4318,
      "road_rd": 4319,
      "disjoint": 4320,
      "tuple_intersection": 4321,
      "tuple_modulo": 4322,
      "tuple_int_str": 4323,
      "tuple_str_int": 4324,
      "accepts": 4325,
      "max_of_two": 4326,
      "max_of_nth": 4327,
      "max_of_three": 4328,
      "max_sub_array_sum_repeated": 4329,
      "move_first": 4330,
      "move_last": 4331,
      "move_zero": 4332,
      "('',),": 4333,
      "sort_list_last": 4334,
      "password": 4335,
      "pass_validity": 4336,
      "index_minimum": 4337,
      "index_multiplication": 4338,
      "index_on_": 4339,
      "large_product": 4340,
      "identify": 4341,
      "frequently": 4342,
      "next_power_of_2": 4343,
      "next_perfect_square": 4344,
      "next_smallest_palindrome": 4345,
      "multiple_split": 4346,
      "multiple_to_single": 4347,
      "perimeter_triangle": 4348,
      "perimeter_polygon": 4349,
      "perimeter_pentagon": 4350,
      "includes": 4351,
      "merge_sorted_list": 4352,
      "reverse_vowels": 4353,
      "reverse_array_upto_": 4354,
      "decimal_to_octal": 4355,
      "coefficients": 4356,
      "modular_sum": 4357,
      "modular_inverse": 4358,
      "previous_palindrome": 4359,
      "hexagonal_num": 4360,
      "parabola_vertex": 4361,
      "parabola_focus": 4362,
      "parabola_directrix": 4363,
      "lateralsurface_cube": 4364,
      "lateralsurface_cuboid": 4365,
      "lateralsurface_cone": 4366,
      "permutation_coefficient": 4367,
      "takes": 4368,
      "re_arrange_tuples": 4369,
      "re_arrange_array": 4370,
      "jacobsthal_num": 4371,
      "clear_tuple": 4372,
      "modified_enco": 4373,
      "first_repeated_word": 4374,
      "opposite_sign": 4375,
      "\"-\"": 4376,
      "'%'": 4377,
      "+[.]\\": 4378,
      "+\\)\",": 4379,
      "2nd": 4380,
      "@:%\"": 4381,
      "@:%.": 4382,
      "[][]": 4383,
      "[][].": 4384,
      "]$\")": 4385,
      "]$|^([": 4386,
      "cumulative": 4387,
      "cummulative": 4388,
      "m_surfacearea": 4389,
      "object": 4390,
      "obtuse": 4391,
      "rgb_to_hsv": 4392,
      "www": 4393,
      "woodball": 4394,
      "|\\*|\\": 4395,
      "}\\\\.[": 4396,
      "stored": 4397,
      "union_elements": 4398,
      "decode": 4399,
      "decode_list": 4400,
      "anagrams": 4401,
      "anagram_lambda": 4402,
      "sequential": 4403,
      "sequential_search": 4404,
      "magic_square_test": 4405,
      "chunking": 4406,
      "chunk_tuples": 4407,
      "chinese_zodiac": 4408,
      "lobb_num": 4409,
      "consist": 4410,
      "consists": 4411,
      "max_len_sub": 4412,
      "find_longest_repeating_": 4413,
      "find_longest_conseq_subseq": 4414,
      "trim_tuple": 4415,
      "count_element_freq": 4416,
      "count_element_in_list": 4417,
      "count_samepair": 4418,
      "count_same_pair": 4419,
      "dig_let": 4420,
      "sum_even_odd": 4421,
      "sum_even_and_even_": 4422,
      "smartnumber": 4423,
      "check_type_of_triangle": 4424,
      "pair_wise": 4425,
      "pair_or_sum": 4426,
      "_numerics": 4427,
      "get_odd_occurrence": 4428,
      "get_odd_occurence": 4429,
      "exchange_elements": 4430,
      "min_of_two": 4431,
      "min_of_three": 4432,
      "differ_at": 4433,
      "decreasing_trend": 4434,
      "binary_to_integer": 4435,
      "binary_to_decimal": 4436,
      "nth_super_ugly_number": 4437,
      "increment_numerics": 4438,
      "fill_spaces": 4439,
      "frequency_of_smallest": 4440,
      "frequency_of_largest": 4441,
      "science": 4442,
      "sciences": 4443,
      "shell_sort": 4444,
      "exponentiation": 4445,
      "occurance_substring": 4446,
      "ncr_modp": 4447,
      "ncr_mod_p": 4448,
      "doesnt": 4449,
      "does_contain": 4450,
      "lucky": 4451,
      "lucky_num": 4452,
      "hexagonal_number": 4453,
      "tn_ap": 4454,
      "tn_gp": 4455,
      "maximize_elements": 4456,
      "1000000007": 4457,
      "check_monthnumber_number": 4458,
      "parallel_lines": 4459,
      "ascii_value_string": 4460,
      "heap_queue_smallest": 4461,
      "heap_queue_largest": 4462,
      "merge_dictionaries_three": 4463,
      "text_match_wordz_middle": 4464,
      "babylonian_squareroot": 4465,
      "drop_empty": 4466,
      "pancake_sort": 4467,
      "delimiters": 4468,
      "armstrong_number": 4469,
      "separately": 4470,
      "is_num_keith": 4471,
      "is_num_decagonal": 4472,
      "appears": 4473,
      "is_valid_parenthese": 4474,
      "is_valid_url": 4475,
      "interleave_lists": 4476,
      "\\\\+~#?&//=]\"": 4477,
      "\\\\+~#?&//=]*)\")": 4478,
      "equilibrium_index": 4479,
      "\"+-\")": 4480,
      "\"}\",": 4481,
      "\"]\"}": 4482,
      "'*'.": 4483,
      "'/(\\": 4484,
      ")|(": 4485,
      ".]')": 4486,
      ".)?\"": 4487,
      ".!?]\",": 4488,
      "214748": 4489,
      "3648": 4490,
      "3965": 4491,
      "6371": 4492,
      "?\\([^)]": 4493,
      "[[]]": 4494,
      "['']": 4495,
      "_lesst": 4496,
      "_dig_spl": 4497,
      "_repeating_character": 4498,
      "acute": 4499,
      "august": 4500,
      "brown": 4501,
      "ctuation": 4502,
      "certain": 4503,
      "centered_": 4504,
      "dnf": 4505,
      "dragon": 4506,
      "flips": 4507,
      "fraction": 4508,
      "front_and_rear": 4509,
      "greatest": 4510,
      "horse": 4511,
      "however": 4512,
      "lcs_of_three": 4513,
      "mutiple_": 4514,
      "ntimes_list": 4515,
      "punctuation": 4516,
      "pack_consecutive_duplicates": 4517,
      "picking": 4518,
      "plane": 4519,
      "satisfi": 4520,
      "sheep": 4521,
      "social": 4522,
      "scalene": 4523,
      "sd_calc": 4524,
      "title": 4525,
      "williams": 4526,
      "width": 4527,
      "{\"(\":": 4528,
      "infinite": 4529,
      "rearranging": 4530,
      "reciprocal": 4531,
      "standard": 4532,
      "stock": 4533,
      ")://)(": 4534,
      "delete": 4535,
      "delannoy": 4536,
      "let_array": 4537,
      "together": 4538,
      "arbitrary": 4539,
      "list_to_float": 4540,
      "listify_list": 4541,
      "semicircle": 4542,
      "structure": 4543,
      "summation": 4544,
      "number_of_substrings": 4545,
      "rooster": 4546,
      "electricity": 4547,
      "maxaverageofpath": 4548,
      "counting_sort": 4549,
      "attribute": 4550,
      "display": 4551,
      "discard": 4552,
      "string_list_to_tuple": 4553,
      "ellipse": 4554,
      "test_three_equal": 4555,
      "pyramid": 4556,
      "entringer": 4557,
      "noprofit_noloss": 4558,
      "quick": 4559,
      "substaract": 4560,
      "moddiv_list": 4561,
      "minimun": 4562,
      "custom": 4563,
      "singleton": 4564,
      "contents": 4565,
      "transactions": 4566,
      "neighbors": 4567,
      "max_prime_factors": 4568,
      "max_similar_indices": 4569,
      "max_sum_of_three_consecutive": 4570,
      "max_run_uppercase": 4571,
      "max_abs_diff": 4572,
      "max_chain_length": 4573,
      "max_path_sum": 4574,
      "max_subarray_product": 4575,
      "all_characters_same": 4576,
      "spondingnum": 4577,
      "removezero_ip": 4578,
      "ed_specific_char": 4579,
      "dict_filter": 4580,
      "('\\.[": 4581,
      "('...',": 4582,
      "sort_numeric_strings": 4583,
      "find_min_diff": 4584,
      "find_minimum_range": 4585,
      "find_rect_num": 4586,
      "find_k_product": 4587,
      "find_even_pair": 4588,
      "find_average_of_cube": 4589,
      "find_odd_pair": 4590,
      "find_last_occurrence": 4591,
      "find_char_long": 4592,
      "find_long_word": 4593,
      "find_platform": 4594,
      "find_closet": 4595,
      "find_triplet_array": 4596,
      "find_star_num": 4597,
      "find_adverb_position": 4598,
      "find_max_len_even": 4599,
      "find_nth_digit": 4600,
      "find_rotation_count": 4601,
      "find_exponentio": 4602,
      "find_fixed_point": 4603,
      "length_of_last_word": 4604,
      "becomes": 4605,
      "count_first_elements": 4606,
      "count_odd_squares": 4607,
      "count_alpha_dig_spl": 4608,
      "count_with_odd_setbits": 4609,
      "count_primes_nums": 4610,
      "count_char_position": 4611,
      "count_no_of_ways": 4612,
      "count_binary_seq": 4613,
      "count_reverse_pairs": 4614,
      "count_intgral_points": 4615,
      "sum_three_smallest_nums": 4616,
      "check_k_elements": 4617,
      "check_even_parity": 4618,
      "check_odd_parity": 4619,
      "check_subset_list": 4620,
      "abbreviate": 4621,
      "dividing": 4622,
      "remove_datatype": 4623,
      "remove_negs": 4624,
      "remove_similar_row": 4625,
      "remove_all_spaces": 4626,
      "remove_extra_char": 4627,
      "remove_replica": 4628,
      "remove_multiple_spaces": 4629,
      "remove_splchar": 4630,
      "remove_duplic_list": 4631,
      "remove_dirty_chars": 4632,
      "remove_matching_tuple": 4633,
      "get_first_set_bit_pos": 4634,
      "get_max_occuring_char": 4635,
      "get_total_number_of_sequences": 4636,
      "cal_electbill": 4637,
      "exercises": 4638,
      "min_product_tuple": 4639,
      "min_flip_to_make": 4640,
      "convert_list_dictionary": 4641,
      "diff_consecutivenums": 4642,
      "add_nested_tuples": 4643,
      "add_pairwise": 4644,
      "add_k_element": 4645,
      "is_product_even": 4646,
      "is_samepatterns": 4647,
      "is_triangleexists": 4648,
      "is_sub_array": 4649,
      "is_sum_of_powers_of_": 4650,
      "is_two_alter": 4651,
      "is_woodall": 4652,
      "is_allowed_specific_char": 4653,
      "is_not_prime": 4654,
      "first_non_repeating_character": 4655,
      "first_factorial_divisible_number": 4656,
      "first_missing_positive": 4657,
      "raw_heap": 4658,
      "power_base_sum": 4659,
      "digit_distance_nums": 4660,
      "group_keyvalue": 4661,
      "set_left_most_unset_bit": 4662,
      "set_right_most_unset_bit": 4663,
      "otherside_rightangle": 4664,
      "reverse_string_list": 4665,
      "duplicants": 4666,
      "frequencies": 4667,
      "significant": 4668,
      "k_smallest_pairs": 4669,
      "filter_oddnumbers": 4670,
      "filter_evennumbers": 4671,
      "even_binomial_coeff_sum": 4672,
      "booleans": 4673,
      "topbottom_surfacearea": 4674,
      "text_lowercase_underscore": 4675,
      "text_uppercase_lowercase": 4676,
      "text_starta_endb": 4677,
      "'''^(": 4678,
      "lateralsuface_cylinder": 4679,
      "longest_subseq_with_diff_one": 4680,
      "__lt__": 4681,
      "sort_dict_item": 4682,
      "sort_on_occurence": 4683,
      "sort_by_dnf": 4684,
      "octal_to_decimal": 4685,
      "sum_of_alternates": 4686,
      "sum_of_inverse_divisors": 4687,
      "sum_of_subarray_prod": 4688,
      "toggle_f_and_l_bits": 4689,
      "last_occurence_char": 4690,
      "last_two_digits": 4691,
      "recursively": 4692,
      "divisible_by_digits": 4693,
      "discriminant_value": 4694,
      "insert_element": 4695,
      "(\"[$#@]\",": 4696,
      "optional": 4697,
      "distance_lat_long": 4698,
      "alphabetically": 4699,
      "text_match_two_three": 4700,
      "amicable_numbers_sum": 4701,
      "capital_words_spaces": 4702,
      "num_comm_div": 4703,
      "tetrahedral_number": 4704,
      "overlapping": 4705,
      "max_sum_rectangular_grid": 4706,
      "max_sum_pair_diff_lesst": 4707,
      "continuously": 4708,
      "start_withp": 4709,
      "basesnum_coresspondingnum": 4710,
      "]?)$'''": 4711,
      "capitalize_first_last_letters": 4712,
      "_one_bit_pos": 4713,
      "available": 4714,
      "bracket": 4715,
      "index_on_inner_list": 4716,
      "reverse_array_upto_k": 4717,
      "modified_encode": 4718,
      "opposite_signs": 4719,
      "cummulative_sum": 4720,
      "find_longest_repeating_subseq": 4721,
      "sum_even_and_even_index": 4722,
      "differ_at_one_bit_pos": 4723,
      "does_contain_b": 4724,
      "2147483648": 4725,
      "?\\([^)]+\\)\",": 4726,
      "centered_hexagonal_number": 4727,
      "mutiple_tuple": 4728,
      "satisfies": 4729,
      "min_flip_to_make_string_alternate": 4730,
      "is_sum_of_powers_of_two": 4731,
      "max_sum_pair_diff_lessthan_k": 4732
    },
    "merges": [
      [
        "i",
        "n"
      ],
      [
        "r",
        "e"
      ],
      [
        "s",
        "t"
      ],
      [
        "t",
        "e"
      ],
      [
        "o",
        "n"
      ],
      [
        "t",
        "u"
      ],
      [
        "t",
        "h"
      ],
      [
        ")",
        ":"
      ],
      [
        "o",
        "r"
      ],
      [
        "u",
        "m"
      ],
      [
        "e",
        "n"
      ],
      [
        "u",
        "n"
      ],
      [
        "c",
        "t"
      ],
      [
        "r",
        "n"
      ],
      [
        "re",
        "tu"
      ],
      [
        "retu",
        "rn"
      ],
      [
        "r",
        "i"
      ],
      [
        "d",
        "e"
      ],
      [
        "l",
        "i"
      ],
      [
        "l",
        "e"
      ],
      [
        "i",
        "on"
      ],
      [
        "t",
        "o"
      ],
      [
        "a",
        "r"
      ],
      [
        "ct",
        "ion"
      ],
      [
        "de",
        "f"
      ],
      [
        "a",
        "n"
      ],
      [
        "th",
        "e"
      ],
      [
        "f",
        "un"
      ],
      [
        "fun",
        "ction"
      ],
      [
        "li",
        "st"
      ],
      [
        "w",
        "ri"
      ],
      [
        "wri",
        "te"
      ],
      [
        "n",
        "um"
      ],
      [
        "a",
        "l"
      ],
      [
        "s",
        "e"
      ],
      [
        "e",
        "r"
      ],
      [
        "i",
        "f"
      ],
      [
        "f",
        "or"
      ],
      [
        "o",
        "f"
      ],
      [
        "g",
        "e"
      ],
      [
        "c",
        "o"
      ],
      [
        "m",
        "a"
      ],
      [
        "re",
        "s"
      ],
      [
        "st",
        "r"
      ],
      [
        "c",
        "h"
      ],
      [
        "in",
        "g"
      ],
      [
        "i",
        "v"
      ],
      [
        "ar",
        "r"
      ],
      [
        "in",
        "d"
      ],
      [
        "tu",
        "p"
      ],
      [
        "f",
        "ind"
      ],
      [
        "iv",
        "en"
      ],
      [
        "g",
        "iven"
      ],
      [
        "an",
        "ge"
      ],
      [
        "s",
        "um"
      ],
      [
        "r",
        "ange"
      ],
      [
        "=",
        "="
      ],
      [
        "b",
        "er"
      ],
      [
        "co",
        "un"
      ],
      [
        "num",
        "ber"
      ],
      [
        "st",
        "_"
      ],
      [
        "m",
        "p"
      ],
      [
        "r",
        "o"
      ],
      [
        "e",
        "le"
      ],
      [
        "ma",
        "x"
      ],
      [
        "coun",
        "t"
      ],
      [
        "l",
        "en"
      ],
      [
        "u",
        "l"
      ],
      [
        ")",
        ")"
      ],
      [
        "a",
        "t"
      ],
      [
        "d",
        "i"
      ],
      [
        "str",
        "ing"
      ],
      [
        "e",
        "l"
      ],
      [
        "te",
        "st_"
      ],
      [
        "p",
        "y"
      ],
      [
        "c",
        "e"
      ],
      [
        "th",
        "on"
      ],
      [
        "py",
        "thon"
      ],
      [
        "en",
        "t"
      ],
      [
        "tup",
        "le"
      ],
      [
        "u",
        "e"
      ],
      [
        "ul",
        "t"
      ],
      [
        "te",
        "r"
      ],
      [
        "or",
        "t"
      ],
      [
        "h",
        "e"
      ],
      [
        "s",
        "u"
      ],
      [
        "i",
        "s"
      ],
      [
        "m",
        "ent"
      ],
      [
        "e",
        "c"
      ],
      [
        "i",
        "t"
      ],
      [
        "res",
        "ult"
      ],
      [
        "a",
        "p"
      ],
      [
        "num",
        "s"
      ],
      [
        "ele",
        "ment"
      ],
      [
        "x",
        "t"
      ],
      [
        "el",
        "se"
      ],
      [
        "l",
        "a"
      ],
      [
        "n",
        "o"
      ],
      [
        "q",
        "u"
      ],
      [
        "+",
        "="
      ],
      [
        "m",
        "e"
      ],
      [
        "an",
        "d"
      ],
      [
        "su",
        "b"
      ],
      [
        "m",
        "o"
      ],
      [
        "h",
        "i"
      ],
      [
        "]",
        "["
      ],
      [
        "i",
        "mp"
      ],
      [
        "imp",
        "ort"
      ],
      [
        "v",
        "al"
      ],
      [
        "i",
        "r"
      ],
      [
        "ch",
        "ec"
      ],
      [
        "chec",
        "k"
      ],
      [
        "t",
        "_"
      ],
      [
        "p",
        "o"
      ],
      [
        "a",
        "y"
      ],
      [
        "m",
        "i"
      ],
      [
        "ro",
        "m"
      ],
      [
        "m",
        "in"
      ],
      [
        "c",
        "u"
      ],
      [
        "l",
        "o"
      ],
      [
        "a",
        "te"
      ],
      [
        "list",
        "1"
      ],
      [
        "d",
        "d"
      ],
      [
        "f",
        "rom"
      ],
      [
        "en",
        "d"
      ],
      [
        "]",
        ")"
      ],
      [
        "_",
        "list"
      ],
      [
        "arr",
        "ay"
      ],
      [
        "no",
        "t"
      ],
      [
        "a",
        "re"
      ],
      [
        "te",
        "mp"
      ],
      [
        "test_",
        "tup"
      ],
      [
        "s",
        "ing"
      ],
      [
        "w",
        "hi"
      ],
      [
        "v",
        "e"
      ],
      [
        "ch",
        "ar"
      ],
      [
        "te",
        "xt"
      ],
      [
        "c",
        "on"
      ],
      [
        "i",
        "m"
      ],
      [
        "a",
        "c"
      ],
      [
        "t",
        "r"
      ],
      [
        "number",
        "s"
      ],
      [
        "n",
        "e"
      ],
      [
        "or",
        "d"
      ],
      [
        "max",
        "_"
      ],
      [
        "g",
        "h"
      ],
      [
        "k",
        "e"
      ],
      [
        "val",
        "ue"
      ],
      [
        "al",
        "l"
      ],
      [
        "t",
        "w"
      ],
      [
        "se",
        "t"
      ],
      [
        "v",
        "er"
      ],
      [
        "mi",
        "d"
      ],
      [
        "mo",
        "ve"
      ],
      [
        "whi",
        "le"
      ],
      [
        "s",
        "p"
      ],
      [
        "tr",
        "ue"
      ],
      [
        "re",
        "move"
      ],
      [
        "s",
        "i"
      ],
      [
        "im",
        "um"
      ],
      [
        "e",
        "d"
      ],
      [
        "f",
        "al"
      ],
      [
        "i",
        "th"
      ],
      [
        "in",
        "t"
      ],
      [
        "element",
        "s"
      ],
      [
        "fal",
        "se"
      ],
      [
        "di",
        "ct"
      ],
      [
        "te",
        "m"
      ],
      [
        "f",
        "ir"
      ],
      [
        "ma",
        "t"
      ],
      [
        "test_",
        "list"
      ],
      [
        "d",
        "p"
      ],
      [
        "i",
        "tem"
      ],
      [
        "u",
        "p"
      ],
      [
        "cu",
        "r"
      ],
      [
        "he",
        "ap"
      ],
      [
        "e",
        "v"
      ],
      [
        "m",
        "on"
      ],
      [
        "o",
        "dd"
      ],
      [
        "the",
        "r"
      ],
      [
        "u",
        "sing"
      ],
      [
        "ma",
        "th"
      ],
      [
        "str",
        "1"
      ],
      [
        "(",
        "("
      ],
      [
        "a",
        "ct"
      ],
      [
        "m",
        "b"
      ],
      [
        "in",
        "de"
      ],
      [
        "ev",
        "en"
      ],
      [
        "tw",
        "o"
      ],
      [
        "(",
        "'"
      ],
      [
        "(",
        ")"
      ],
      [
        "w",
        "ith"
      ],
      [
        "ke",
        "y"
      ],
      [
        "b",
        "y"
      ],
      [
        "s",
        "ort"
      ],
      [
        "re",
        "n"
      ],
      [
        "!",
        "="
      ],
      [
        "<",
        "="
      ],
      [
        "lo",
        "w"
      ],
      [
        ")",
        "]"
      ],
      [
        "i",
        "p"
      ],
      [
        "p",
        "a"
      ],
      [
        "w",
        "ord"
      ],
      [
        "ar",
        "t"
      ],
      [
        "o",
        "l"
      ],
      [
        "it",
        "s"
      ],
      [
        "g",
        "th"
      ],
      [
        "p",
        "e"
      ],
      [
        "te",
        "d"
      ],
      [
        "co",
        "l"
      ],
      [
        "find",
        "_"
      ],
      [
        "inde",
        "x"
      ],
      [
        "len",
        "gth"
      ],
      [
        "qu",
        "en"
      ],
      [
        "t",
        "ri"
      ],
      [
        "w",
        "he"
      ],
      [
        "e",
        "li"
      ],
      [
        "1",
        "0"
      ],
      [
        "d",
        "a"
      ],
      [
        "la",
        "mb"
      ],
      [
        "lamb",
        "da"
      ],
      [
        "a",
        "s"
      ],
      [
        "p",
        "er"
      ],
      [
        "eli",
        "f"
      ],
      [
        "/",
        "/"
      ],
      [
        "b",
        "e"
      ],
      [
        "count",
        "_"
      ],
      [
        "po",
        "s"
      ],
      [
        "di",
        "g"
      ],
      [
        "whe",
        "ther"
      ],
      [
        "s",
        "or"
      ],
      [
        "te",
        "rn"
      ],
      [
        "mat",
        "ch"
      ],
      [
        "sor",
        "ted"
      ],
      [
        "ri",
        "me"
      ],
      [
        "st",
        "art"
      ],
      [
        "list",
        "s"
      ],
      [
        "ap",
        "p"
      ],
      [
        "'",
        ","
      ],
      [
        "(",
        "\""
      ],
      [
        "a",
        "se"
      ],
      [
        "sum",
        "_"
      ],
      [
        "e",
        "s"
      ],
      [
        "re",
        "a"
      ],
      [
        "s",
        "m"
      ],
      [
        "max",
        "imum"
      ],
      [
        "char",
        "ac"
      ],
      [
        "i",
        "l"
      ],
      [
        "tuple",
        "s"
      ],
      [
        "app",
        "end"
      ],
      [
        "]",
        ","
      ],
      [
        "p",
        "at"
      ],
      [
        "check",
        "_"
      ],
      [
        "charac",
        "ter"
      ],
      [
        "pat",
        "tern"
      ],
      [
        "a",
        "me"
      ],
      [
        "th",
        "at"
      ],
      [
        "ce",
        "s"
      ],
      [
        "'",
        ")"
      ],
      [
        "fir",
        "st"
      ],
      [
        ">",
        "="
      ],
      [
        "pa",
        "ir"
      ],
      [
        "g",
        "le"
      ],
      [
        "o",
        "c"
      ],
      [
        "u",
        "t"
      ],
      [
        "gh",
        "t"
      ],
      [
        "ar",
        "y"
      ],
      [
        "se",
        "quen"
      ],
      [
        ")",
        "):"
      ],
      [
        "p",
        "ro"
      ],
      [
        "iv",
        "e"
      ],
      [
        "are",
        "a"
      ],
      [
        "a",
        "b"
      ],
      [
        "on",
        "e"
      ],
      [
        "d",
        "iv"
      ],
      [
        "t",
        "y"
      ],
      [
        "at",
        "ion"
      ],
      [
        "po",
        "w"
      ],
      [
        "z",
        "e"
      ],
      [
        "to",
        "t"
      ],
      [
        "\"",
        ")"
      ],
      [
        "_",
        "num"
      ],
      [
        "e",
        "qu"
      ],
      [
        "g",
        "er"
      ],
      [
        "s",
        "qu"
      ],
      [
        "_",
        "sum"
      ],
      [
        "b",
        "in"
      ],
      [
        "un",
        "d"
      ],
      [
        "le",
        "f"
      ],
      [
        "mon",
        "th"
      ],
      [
        "tot",
        "al"
      ],
      [
        "ar",
        "ch"
      ],
      [
        "an",
        "gle"
      ],
      [
        "remove",
        "_"
      ],
      [
        "f",
        "act"
      ],
      [
        "l",
        "ar"
      ],
      [
        "of",
        "_"
      ],
      [
        "d",
        "if"
      ],
      [
        "in",
        "te"
      ],
      [
        "an",
        "s"
      ],
      [
        "al",
        "le"
      ],
      [
        "p",
        "la"
      ],
      [
        "se",
        "arch"
      ],
      [
        "ge",
        "t_"
      ],
      [
        "item",
        "s"
      ],
      [
        "inte",
        "ger"
      ],
      [
        "\"",
        ","
      ],
      [
        ")",
        ","
      ],
      [
        "[",
        "]"
      ],
      [
        "c",
        "al"
      ],
      [
        "l",
        "y"
      ],
      [
        "ma",
        "p"
      ],
      [
        "ing",
        "_"
      ],
      [
        "cur",
        "ren"
      ],
      [
        "pro",
        "d"
      ],
      [
        "pla",
        "ce"
      ],
      [
        "e",
        "x"
      ],
      [
        "re",
        "ge"
      ],
      [
        "min",
        "_"
      ],
      [
        "con",
        "ver"
      ],
      [
        "rege",
        "x"
      ],
      [
        "i",
        "d"
      ],
      [
        "dif",
        "f"
      ],
      [
        "conver",
        "t"
      ],
      [
        "0",
        "0"
      ],
      [
        "l",
        "st"
      ],
      [
        "si",
        "ze"
      ],
      [
        "]",
        ":"
      ],
      [
        "]",
        "):"
      ],
      [
        "a",
        "dd"
      ],
      [
        "c",
        "ase"
      ],
      [
        "e",
        "xt"
      ],
      [
        "hi",
        "gh"
      ],
      [
        "sp",
        "ec"
      ],
      [
        "sm",
        "alle"
      ],
      [
        "sequen",
        "ce"
      ],
      [
        "ext",
        "r"
      ],
      [
        "pos",
        "it"
      ],
      [
        "al",
        "_"
      ],
      [
        "value",
        "s"
      ],
      [
        "pattern",
        "s"
      ],
      [
        "f",
        "re"
      ],
      [
        "p",
        "rime"
      ],
      [
        "ct",
        "r"
      ],
      [
        "co",
        "m"
      ],
      [
        "is",
        "_"
      ],
      [
        "min",
        "imum"
      ],
      [
        "character",
        "s"
      ],
      [
        "div",
        "is"
      ],
      [
        "e",
        "a"
      ],
      [
        "ne",
        "w"
      ],
      [
        "fir",
        "st_"
      ],
      [
        "extr",
        "act"
      ],
      [
        "f",
        "o"
      ],
      [
        "i",
        "c"
      ],
      [
        "s",
        "q"
      ],
      [
        "u",
        "ct"
      ],
      [
        "ro",
        "w"
      ],
      [
        "prod",
        "uct"
      ],
      [
        "ea",
        "ch"
      ],
      [
        "h",
        "a"
      ],
      [
        "l",
        "on"
      ],
      [
        "m",
        "ult"
      ],
      [
        "r",
        "a"
      ],
      [
        "re",
        "e"
      ],
      [
        "ri",
        "ght"
      ],
      [
        "ge",
        "st"
      ],
      [
        "ne",
        "xt"
      ],
      [
        "(",
        "["
      ],
      [
        "o",
        "t"
      ],
      [
        "test_tup",
        "2"
      ],
      [
        "con",
        "t"
      ],
      [
        "pair",
        "s"
      ],
      [
        "com",
        "mon"
      ],
      [
        "z",
        "ip"
      ],
      [
        "he",
        "re"
      ],
      [
        "test_tup",
        "1"
      ],
      [
        "heap",
        "q"
      ],
      [
        "_",
        "nums"
      ],
      [
        "a",
        "in"
      ],
      [
        "a",
        "li"
      ],
      [
        "d",
        "at"
      ],
      [
        "sp",
        "li"
      ],
      [
        "dig",
        "its"
      ],
      [
        "pow",
        "er"
      ],
      [
        "lef",
        "t"
      ],
      [
        "coun",
        "ter"
      ],
      [
        "la",
        "st"
      ],
      [
        "squ",
        "are"
      ],
      [
        "cal",
        "c"
      ],
      [
        "spec",
        "if"
      ],
      [
        "mult",
        "ip"
      ],
      [
        "dat",
        "a"
      ],
      [
        "b",
        "its"
      ],
      [
        "b",
        "rea"
      ],
      [
        "c",
        "ate"
      ],
      [
        "q",
        "ue"
      ],
      [
        "de",
        "c"
      ],
      [
        "string",
        "s"
      ],
      [
        "low",
        "er"
      ],
      [
        "word",
        "s"
      ],
      [
        "brea",
        "k"
      ],
      [
        "a",
        "ce"
      ],
      [
        "f",
        "lo"
      ],
      [
        "an",
        "ce"
      ],
      [
        "str",
        "2"
      ],
      [
        "su",
        "r"
      ],
      [
        "end",
        "ing_"
      ],
      [
        "integer",
        "s"
      ],
      [
        "ending_",
        "here"
      ],
      [
        "_",
        "count"
      ],
      [
        "n",
        "a"
      ],
      [
        "o",
        "w"
      ],
      [
        "u",
        "s"
      ],
      [
        "in",
        "p"
      ],
      [
        "re",
        "place"
      ],
      [
        "or",
        "s"
      ],
      [
        "ction",
        "s"
      ],
      [
        "ul",
        "ate"
      ],
      [
        "dig",
        "it"
      ],
      [
        "bin",
        "ary"
      ],
      [
        "calc",
        "ulate"
      ],
      [
        "a",
        "d"
      ],
      [
        "n",
        "th"
      ],
      [
        "n",
        "one"
      ],
      [
        "um",
        "e"
      ],
      [
        "le",
        "ctions"
      ],
      [
        "num",
        "2"
      ],
      [
        "cur",
        "r"
      ],
      [
        "pe",
        "rime"
      ],
      [
        "col",
        "lections"
      ],
      [
        "equ",
        "al"
      ],
      [
        "spli",
        "t"
      ],
      [
        "perime",
        "ter"
      ],
      [
        "]",
        "+"
      ],
      [
        "_",
        "f"
      ],
      [
        "c",
        "n"
      ],
      [
        "c",
        "y"
      ],
      [
        "))",
        ")"
      ],
      [
        "di",
        "ction"
      ],
      [
        "f",
        "ace"
      ],
      [
        "g",
        "ro"
      ],
      [
        "j",
        "o"
      ],
      [
        "id",
        "x"
      ],
      [
        "smalle",
        "st"
      ],
      [
        "gro",
        "up"
      ],
      [
        "*",
        "("
      ],
      [
        "s",
        "o"
      ],
      [
        "s",
        "ame"
      ],
      [
        "in",
        "c"
      ],
      [
        "to",
        "_"
      ],
      [
        "ver",
        "se"
      ],
      [
        "ren",
        "ce"
      ],
      [
        "tri",
        "angle"
      ],
      [
        "ab",
        "le"
      ],
      [
        "sur",
        "face"
      ],
      [
        "jo",
        "in"
      ],
      [
        "[",
        ":"
      ],
      [
        "d",
        "up"
      ],
      [
        "i",
        "ed"
      ],
      [
        "m",
        "s"
      ],
      [
        "m",
        "er"
      ],
      [
        "s",
        "a"
      ],
      [
        "v",
        "ol"
      ],
      [
        "v",
        "ali"
      ],
      [
        "le",
        "t"
      ],
      [
        "max_",
        "ending_here"
      ],
      [
        "ation",
        "s"
      ],
      [
        "flo",
        "at"
      ],
      [
        "vol",
        "ume"
      ],
      [
        "[",
        "-"
      ],
      [
        "c",
        "d"
      ],
      [
        "n",
        "ame"
      ],
      [
        "p",
        "res"
      ],
      [
        "re",
        "pe"
      ],
      [
        "th",
        "ree"
      ],
      [
        "cont",
        "ain"
      ],
      [
        "'",
        "."
      ],
      [
        ")",
        ";"
      ],
      [
        "a",
        "ge"
      ],
      [
        "e",
        "en"
      ],
      [
        "g",
        "cd"
      ],
      [
        "m",
        "y"
      ],
      [
        "p",
        "r"
      ],
      [
        "un",
        "t"
      ],
      [
        "num",
        "1"
      ],
      [
        "se",
        "t_"
      ],
      [
        "ro",
        "ot"
      ],
      [
        "test_",
        "str"
      ],
      [
        "ay",
        "s"
      ],
      [
        "tw",
        "een"
      ],
      [
        "up",
        "per"
      ],
      [
        "be",
        "tween"
      ],
      [
        "oc",
        "curren"
      ],
      [
        "lar",
        "gest"
      ],
      [
        "diff",
        "e"
      ],
      [
        "posit",
        "ion"
      ],
      [
        "mer",
        "ge"
      ],
      [
        "b",
        "le"
      ],
      [
        "i",
        "ter"
      ],
      [
        "o",
        "ther"
      ],
      [
        "r",
        "al"
      ],
      [
        "u",
        "t_"
      ],
      [
        "re",
        "verse"
      ],
      [
        "ri",
        "x"
      ],
      [
        "ge",
        "t"
      ],
      [
        "specif",
        "ied"
      ],
      [
        "dup",
        "li"
      ],
      [
        "_",
        "of_"
      ],
      [
        "a",
        "g"
      ],
      [
        "a",
        "mo"
      ],
      [
        "b",
        "it"
      ],
      [
        "d",
        "_"
      ],
      [
        "l",
        "u"
      ],
      [
        "r",
        "t"
      ],
      [
        "arr",
        "_"
      ],
      [
        "ro",
        "t"
      ],
      [
        "el",
        "l"
      ],
      [
        "ne",
        "g"
      ],
      [
        "fre",
        "quen"
      ],
      [
        "ra",
        "di"
      ],
      [
        "amo",
        "unt"
      ],
      [
        "]",
        "))"
      ],
      [
        "b",
        "ase"
      ],
      [
        "f",
        "il"
      ],
      [
        "i",
        "al"
      ],
      [
        "s",
        "s"
      ],
      [
        "s",
        "w"
      ],
      [
        "v",
        "ow"
      ],
      [
        "st",
        "ed"
      ],
      [
        "tu",
        "ral"
      ],
      [
        "co",
        "st"
      ],
      [
        "co",
        "mp"
      ],
      [
        "ne",
        "sted"
      ],
      [
        "fo",
        "und"
      ],
      [
        "na",
        "tural"
      ],
      [
        "frequen",
        "cy"
      ],
      [
        "_",
        "number"
      ],
      [
        "g",
        "n"
      ],
      [
        "h",
        "as"
      ],
      [
        "re",
        "d"
      ],
      [
        "re",
        "ct"
      ],
      [
        "st",
        "ance"
      ],
      [
        "th",
        "an"
      ],
      [
        "de",
        "r"
      ],
      [
        "ter",
        "al"
      ],
      [
        "sub",
        "sequence"
      ],
      [
        "whi",
        "ch"
      ],
      [
        "si",
        "gn"
      ],
      [
        "cn",
        "t"
      ],
      [
        "diction",
        "ary"
      ],
      [
        "vali",
        "d"
      ],
      [
        "dupli",
        "cate"
      ],
      [
        "[",
        "["
      ],
      [
        "a",
        "ult"
      ],
      [
        "a",
        "ces"
      ],
      [
        "f",
        "i"
      ],
      [
        "i",
        "ght"
      ],
      [
        "k",
        "_"
      ],
      [
        "p",
        "s"
      ],
      [
        "p",
        "re"
      ],
      [
        "in",
        "to"
      ],
      [
        "te",
        "n"
      ],
      [
        "un",
        "i"
      ],
      [
        "ri",
        "gh"
      ],
      [
        "le",
        "_"
      ],
      [
        "def",
        "ault"
      ],
      [
        "ge",
        "st_"
      ],
      [
        "he",
        "ight"
      ],
      [
        "cu",
        "be"
      ],
      [
        "sp",
        "aces"
      ],
      [
        "mat",
        "rix"
      ],
      [
        "dec",
        "im"
      ],
      [
        "inp",
        "ut"
      ],
      [
        "let",
        "ter"
      ],
      [
        "diffe",
        "rence"
      ],
      [
        "righ",
        "t_"
      ],
      [
        "!",
        "')"
      ],
      [
        "(",
        "):"
      ],
      [
        "a",
        "res"
      ],
      [
        "b",
        "ell"
      ],
      [
        "e",
        "ar"
      ],
      [
        "l",
        "in"
      ],
      [
        "l",
        "at"
      ],
      [
        "s",
        "ion"
      ],
      [
        "an",
        "y"
      ],
      [
        "list",
        "2"
      ],
      [
        "co",
        "mb"
      ],
      [
        "max_",
        "so"
      ],
      [
        "squ",
        "ares"
      ],
      [
        "_f",
        "ar"
      ],
      [
        "fil",
        "ter"
      ],
      [
        "max_so",
        "_far"
      ],
      [
        ",",
        "-"
      ],
      [
        "-",
        "="
      ],
      [
        ">",
        ">"
      ],
      [
        "_",
        "string"
      ],
      [
        "_",
        "to_"
      ],
      [
        "e",
        "mp"
      ],
      [
        "i",
        "se"
      ],
      [
        "l",
        "1"
      ],
      [
        "l",
        "f"
      ],
      [
        "s",
        "y"
      ],
      [
        "s",
        "ol"
      ],
      [
        "z",
        "er"
      ],
      [
        "se",
        "lf"
      ],
      [
        "er",
        "ate"
      ],
      [
        "di",
        "c"
      ],
      [
        "test_",
        "tuple"
      ],
      [
        "sub",
        "_"
      ],
      [
        "con",
        "se"
      ],
      [
        "even",
        "_"
      ],
      [
        "match",
        "ed"
      ],
      [
        "rea",
        "sing"
      ],
      [
        "pres",
        "ent"
      ],
      [
        "my",
        "_list"
      ],
      [
        "sw",
        "ap"
      ],
      [
        "emp",
        "ty"
      ],
      [
        "zer",
        "o"
      ],
      [
        "*",
        "*"
      ],
      [
        "_",
        "elements"
      ],
      [
        "c",
        "l"
      ],
      [
        "e",
        "f"
      ],
      [
        "i",
        "g"
      ],
      [
        "n",
        "1"
      ],
      [
        "o",
        "mi"
      ],
      [
        "t",
        "i"
      ],
      [
        "ri",
        "es"
      ],
      [
        "ch",
        "il"
      ],
      [
        "ro",
        "und"
      ],
      [
        "nums",
        "1"
      ],
      [
        "nums",
        "2"
      ],
      [
        "cu",
        "t"
      ],
      [
        "key",
        "s"
      ],
      [
        "bin",
        "omi"
      ],
      [
        "lef",
        "t_"
      ],
      [
        "repe",
        "ate"
      ],
      [
        "contain",
        "s"
      ],
      [
        "decim",
        "al"
      ],
      [
        "comb",
        "in"
      ],
      [
        "conse",
        "cut"
      ],
      [
        "1",
        "2"
      ],
      [
        "]",
        "."
      ],
      [
        "b",
        "s"
      ],
      [
        "c",
        "m"
      ],
      [
        "c",
        "an"
      ],
      [
        "d",
        "ays"
      ],
      [
        "l",
        "s"
      ],
      [
        "m",
        "x"
      ],
      [
        "p",
        "i"
      ],
      [
        "s",
        "c"
      ],
      [
        "s",
        "h"
      ],
      [
        "{",
        "}"
      ],
      [
        "se",
        "q"
      ],
      [
        "sq",
        "rt"
      ],
      [
        "inc",
        "reasing"
      ],
      [
        "neg",
        "at"
      ],
      [
        "uni",
        "que"
      ],
      [
        "ti",
        "me"
      ],
      [
        "consecut",
        "ive"
      ],
      [
        "*",
        "="
      ],
      [
        "a",
        "ver"
      ],
      [
        "f",
        "la"
      ],
      [
        "g",
        "ap"
      ],
      [
        "j",
        "ac"
      ],
      [
        "l",
        "cm"
      ],
      [
        "y",
        "ear"
      ],
      [
        "al",
        "p"
      ],
      [
        "res",
        "_"
      ],
      [
        "find",
        "all"
      ],
      [
        "ac",
        "k"
      ],
      [
        "sequen",
        "ces"
      ],
      [
        "posit",
        "ive"
      ],
      [
        "fre",
        "q"
      ],
      [
        "divis",
        "ors"
      ],
      [
        "ha",
        "ve"
      ],
      [
        "multip",
        "le"
      ],
      [
        "que",
        "ue"
      ],
      [
        "ad",
        "jac"
      ],
      [
        "aver",
        "age"
      ],
      [
        "fla",
        "g"
      ],
      [
        "\"",
        "\""
      ],
      [
        "'",
        ":"
      ],
      [
        ")",
        "."
      ],
      [
        "<",
        "<"
      ],
      [
        "]",
        "]"
      ],
      [
        "b",
        "o"
      ],
      [
        "h",
        "q"
      ],
      [
        "l",
        "2"
      ],
      [
        "m",
        "n"
      ],
      [
        "n",
        "c"
      ],
      [
        "n",
        "on"
      ],
      [
        "in",
        "stance"
      ],
      [
        "st",
        "ack"
      ],
      [
        "or",
        "der"
      ],
      [
        "to",
        "p"
      ],
      [
        "co",
        "ef"
      ],
      [
        "arr",
        "1"
      ],
      [
        "arr",
        "2"
      ],
      [
        "di",
        "an"
      ],
      [
        "ter",
        "m"
      ],
      [
        "is",
        "instance"
      ],
      [
        "me",
        "dian"
      ],
      [
        "po",
        "p"
      ],
      [
        "text",
        "_"
      ],
      [
        "with",
        "in"
      ],
      [
        "month",
        "name"
      ],
      [
        "extract",
        "_"
      ],
      [
        "common",
        "_"
      ],
      [
        "ag",
        "on"
      ],
      [
        "default",
        "dict"
      ],
      [
        "sy",
        "s"
      ],
      [
        "repeate",
        "d"
      ],
      [
        "!",
        "'"
      ],
      [
        "'",
        "'"
      ],
      [
        ")",
        "/"
      ],
      [
        "_",
        "items"
      ],
      [
        "m",
        "is"
      ],
      [
        "p",
        "ri"
      ],
      [
        "p",
        "ar"
      ],
      [
        "p",
        "art"
      ],
      [
        "t",
        "s"
      ],
      [
        "u",
        "g"
      ],
      [
        "u",
        "r"
      ],
      [
        "in",
        "ter"
      ],
      [
        "ri",
        "ty"
      ],
      [
        "ul",
        "ar"
      ],
      [
        "tuple",
        "x"
      ],
      [
        "la",
        "teral"
      ],
      [
        "sub",
        "set"
      ],
      [
        "mo",
        "d"
      ],
      [
        "dict",
        "1"
      ],
      [
        "pa",
        "rity"
      ],
      [
        "start",
        "x"
      ],
      [
        "oc",
        "cu"
      ],
      [
        "ty",
        "pe"
      ],
      [
        "fact",
        "or"
      ],
      [
        "curren",
        "t_"
      ],
      [
        "00",
        "0"
      ],
      [
        "divis",
        "or"
      ],
      [
        "new",
        "list"
      ],
      [
        "lon",
        "gest_"
      ],
      [
        "arr_",
        "len"
      ],
      [
        "vow",
        "el"
      ],
      [
        "letter",
        "s"
      ],
      [
        "chil",
        "d"
      ],
      [
        "negat",
        "ive"
      ],
      [
        "time",
        "s"
      ],
      [
        "mis",
        "sing"
      ],
      [
        ")",
        "-"
      ],
      [
        "_",
        "_"
      ],
      [
        "_",
        "term"
      ],
      [
        "d",
        "ate"
      ],
      [
        "e",
        "ct"
      ],
      [
        "e",
        "ver"
      ],
      [
        "j",
        "um"
      ],
      [
        "o",
        "ut"
      ],
      [
        "o",
        "ut_"
      ],
      [
        "p",
        "us"
      ],
      [
        "t",
        "able"
      ],
      [
        "u",
        "c"
      ],
      [
        "ri",
        "c"
      ],
      [
        "to",
        "ol"
      ],
      [
        "an",
        "t"
      ],
      [
        "num",
        "3"
      ],
      [
        "num",
        "_list"
      ],
      [
        "se",
        "con"
      ],
      [
        "se",
        "as"
      ],
      [
        "of",
        "it"
      ],
      [
        "su",
        "ch"
      ],
      [
        "sub",
        "list"
      ],
      [
        "po",
        "int"
      ],
      [
        "max_",
        "sum"
      ],
      [
        "odd",
        "_"
      ],
      [
        "inde",
        "r"
      ],
      [
        "sort",
        "_"
      ],
      [
        "ut",
        "ion"
      ],
      [
        "of_",
        "place"
      ],
      [
        "ex",
        "p"
      ],
      [
        "lon",
        "gest"
      ],
      [
        "multip",
        "ly"
      ],
      [
        "lower",
        "case"
      ],
      [
        "group",
        "by"
      ],
      [
        "pr",
        "int"
      ],
      [
        "pr",
        "ofit"
      ],
      [
        "occurren",
        "ce"
      ],
      [
        "occurren",
        "ces"
      ],
      [
        "iter",
        "tool"
      ],
      [
        "sol",
        "ution"
      ],
      [
        "binomi",
        "al_"
      ],
      [
        "combin",
        "ations"
      ],
      [
        "adjac",
        "ent"
      ],
      [
        "pri",
        "ce"
      ],
      [
        "vowel",
        "s"
      ],
      [
        "jum",
        "ps"
      ],
      [
        "out_",
        "of_place"
      ],
      [
        "pus",
        "h"
      ],
      [
        "seas",
        "on"
      ],
      [
        "itertool",
        "s"
      ],
      [
        "'",
        "\\"
      ],
      [
        "(",
        "\\"
      ],
      [
        "(",
        "))"
      ],
      [
        "2",
        "5"
      ],
      [
        "6",
        "0"
      ],
      [
        "_",
        "sort"
      ],
      [
        "_",
        "ctr"
      ],
      [
        "f",
        "ol"
      ],
      [
        "g",
        "or"
      ],
      [
        "g",
        "en"
      ],
      [
        "g",
        "rea"
      ],
      [
        "i",
        "o"
      ],
      [
        "i",
        "red"
      ],
      [
        "o",
        "se"
      ],
      [
        "o",
        "per"
      ],
      [
        "y",
        "y"
      ],
      [
        "re",
        "qu"
      ],
      [
        "on",
        "ly"
      ],
      [
        "an",
        "other"
      ],
      [
        "tup",
        "1"
      ],
      [
        "ele",
        "1"
      ],
      [
        "ele",
        "2"
      ],
      [
        "di",
        "st"
      ],
      [
        "sub",
        "string"
      ],
      [
        "mo",
        "st"
      ],
      [
        "mo",
        "st_"
      ],
      [
        "lo",
        "g"
      ],
      [
        "max_",
        "val"
      ],
      [
        "si",
        "ble"
      ],
      [
        "pos",
        "sible"
      ],
      [
        "match",
        "es"
      ],
      [
        "start",
        "y"
      ],
      [
        "oc",
        "cur"
      ],
      [
        "inp",
        "ut_"
      ],
      [
        "surface",
        "area"
      ],
      [
        "lu",
        "dic"
      ],
      [
        "rot",
        "ate"
      ],
      [
        "fi",
        "x"
      ],
      [
        "alp",
        "ha"
      ],
      [
        "text_",
        "match"
      ],
      [
        "ever",
        "y"
      ],
      [
        "binomial_",
        "coef"
      ],
      [
        "fol",
        "low"
      ],
      [
        "grea",
        "ter"
      ],
      [
        "requ",
        "ired"
      ],
      [
        "input_",
        "list"
      ],
      [
        "2",
        "000"
      ],
      [
        "[",
        "("
      ],
      [
        "]",
        "="
      ],
      [
        "]",
        "\","
      ],
      [
        "_",
        "element"
      ],
      [
        "b",
        "al"
      ],
      [
        "c",
        "a"
      ],
      [
        "c",
        "i"
      ],
      [
        "c",
        "ord"
      ],
      [
        "g",
        "ol"
      ],
      [
        "o",
        "ct"
      ],
      [
        "p",
        "al"
      ],
      [
        "t",
        "c"
      ],
      [
        "u",
        "te"
      ],
      [
        "um",
        "erate"
      ],
      [
        "en",
        "umerate"
      ],
      [
        "al",
        "gor"
      ],
      [
        "for",
        "m"
      ],
      [
        "ind",
        "ro"
      ],
      [
        "di",
        "ame"
      ],
      [
        "ce",
        "p"
      ],
      [
        "mi",
        "lar"
      ],
      [
        "_list",
        "s"
      ],
      [
        "con",
        "cate"
      ],
      [
        "si",
        "milar"
      ],
      [
        "ith",
        "m"
      ],
      [
        "dict",
        "_"
      ],
      [
        "()",
        ","
      ],
      [
        "sum_",
        "of_"
      ],
      [
        "smalle",
        "st_"
      ],
      [
        "first_",
        "odd"
      ],
      [
        "first_",
        "even"
      ],
      [
        "specif",
        "ic"
      ],
      [
        "curr",
        "len"
      ],
      [
        "upper",
        "case"
      ],
      [
        "rect",
        "angle"
      ],
      [
        "zero",
        "es"
      ],
      [
        "sc",
        "ri"
      ],
      [
        "nc",
        "r"
      ],
      [
        "factor",
        "ial"
      ],
      [
        "gol",
        "d"
      ],
      [
        "pal",
        "indro"
      ],
      [
        "algor",
        "ithm"
      ],
      [
        "diame",
        "ter"
      ],
      [
        "concate",
        "n"
      ],
      [
        "\"",
        ":"
      ],
      [
        "$",
        "'"
      ],
      [
        ")",
        "+"
      ],
      [
        "]",
        "*"
      ],
      [
        "_",
        "st"
      ],
      [
        "_",
        "tuple"
      ],
      [
        "_",
        "ed"
      ],
      [
        "_",
        "data"
      ],
      [
        "a",
        "e"
      ],
      [
        "g",
        "gle"
      ],
      [
        "i",
        "ble"
      ],
      [
        "k",
        "s"
      ],
      [
        "m",
        "2"
      ],
      [
        "r",
        "un"
      ],
      [
        "v",
        "ing"
      ],
      [
        "w",
        "ise"
      ],
      [
        "in",
        "t_"
      ],
      [
        "li",
        "p"
      ],
      [
        "to",
        "ggle"
      ],
      [
        "arr",
        "ange"
      ],
      [
        "la",
        "st_"
      ],
      [
        "no",
        "of"
      ],
      [
        "sub",
        "strings"
      ],
      [
        "po",
        "ly"
      ],
      [
        "mi",
        "c"
      ],
      [
        "array",
        "_nums"
      ],
      [
        "sing",
        "le"
      ],
      [
        "char",
        "s"
      ],
      [
        "si",
        "de"
      ],
      [
        "10",
        "0"
      ],
      [
        "//",
        "="
      ],
      [
        "ab",
        "s"
      ],
      [
        "fact",
        "ors"
      ],
      [
        "),",
        "-"
      ],
      [
        "curren",
        "t"
      ],
      [
        "arr_",
        "size"
      ],
      [
        "rot",
        "ations"
      ],
      [
        "pre",
        "fix"
      ],
      [
        "increasing",
        "_"
      ],
      [
        "follow",
        "ed"
      ],
      [
        "bal",
        "ance"
      ],
      [
        "1",
        "5"
      ],
      [
        "1",
        "6"
      ],
      [
        ">",
        ">="
      ],
      [
        "]",
        ";"
      ],
      [
        "]",
        "?"
      ],
      [
        "_",
        "str"
      ],
      [
        "_",
        "val"
      ],
      [
        "_",
        "dict"
      ],
      [
        "_",
        "length"
      ],
      [
        "a",
        "ries"
      ],
      [
        "c",
        "math"
      ],
      [
        "d",
        "o"
      ],
      [
        "d",
        "ing"
      ],
      [
        "d",
        "ow"
      ],
      [
        "f",
        "in"
      ],
      [
        "g",
        "on"
      ],
      [
        "m",
        "ar"
      ],
      [
        "o",
        "k_"
      ],
      [
        "s",
        "na"
      ],
      [
        "w",
        "ays"
      ],
      [
        "x",
        "or"
      ],
      [
        "x",
        "ed"
      ],
      [
        "z",
        "0"
      ],
      [
        "in",
        "ct"
      ],
      [
        "in",
        "ate"
      ],
      [
        "re",
        "cur"
      ],
      [
        "re",
        "cord"
      ],
      [
        "li",
        "s"
      ],
      [
        "se",
        "ries"
      ],
      [
        "if",
        "y"
      ],
      [
        "co",
        "in"
      ],
      [
        "ma",
        "ke"
      ],
      [
        "ch",
        "ange"
      ],
      [
        "ch",
        "ain"
      ],
      [
        "==",
        "'"
      ],
      [
        "di",
        "scri"
      ],
      [
        "no",
        "de"
      ],
      [
        "sub",
        "lists"
      ],
      [
        "ir",
        "c"
      ],
      [
        "mi",
        "xed"
      ],
      [
        "lo",
        "ok_"
      ],
      [
        "array",
        "s"
      ],
      [
        "ord",
        "inate"
      ],
      [
        "heap",
        "pop"
      ],
      [
        "('",
        "["
      ],
      [
        "with",
        "_"
      ],
      [
        "per",
        "form"
      ],
      [
        "prime",
        "s"
      ],
      [
        "divis",
        "ible"
      ],
      [
        "diction",
        "aries"
      ],
      [
        "lu",
        "c"
      ],
      [
        "pre",
        "v"
      ],
      [
        "lin",
        "e"
      ],
      [
        "swap",
        "s"
      ],
      [
        "agon",
        "al"
      ],
      [
        "dist",
        "inct"
      ],
      [
        "palindro",
        "me"
      ],
      [
        "dow",
        "n"
      ],
      [
        "mar",
        "ks"
      ],
      [
        "sna",
        "ke"
      ],
      [
        "discri",
        "min"
      ],
      [
        "look_",
        "up"
      ],
      [
        "\"",
        "."
      ],
      [
        "'",
        "["
      ],
      [
        ")",
        "*"
      ],
      [
        "3",
        "60"
      ],
      [
        ":",
        "]"
      ],
      [
        ":",
        "])"
      ],
      [
        "\\",
        "\\"
      ],
      [
        "]",
        "|"
      ],
      [
        "_",
        "len"
      ],
      [
        "_",
        "characters"
      ],
      [
        "_",
        "with_"
      ],
      [
        "b",
        "uc"
      ],
      [
        "c",
        "irc"
      ],
      [
        "e",
        "ric"
      ],
      [
        "f",
        "lat"
      ],
      [
        "g",
        "ri"
      ],
      [
        "g",
        "he"
      ],
      [
        "g",
        "ular"
      ],
      [
        "h",
        "und"
      ],
      [
        "i",
        "st"
      ],
      [
        "i",
        "le"
      ],
      [
        "k",
        "th"
      ],
      [
        "l",
        "inder"
      ],
      [
        "m",
        "m"
      ],
      [
        "m",
        "ul"
      ],
      [
        "m",
        "el"
      ],
      [
        "m",
        "ls"
      ],
      [
        "n",
        "2"
      ],
      [
        "n",
        "the"
      ],
      [
        "p",
        "are"
      ],
      [
        "u",
        "le"
      ],
      [
        "v",
        "_count"
      ],
      [
        "w",
        "h"
      ],
      [
        "y",
        "es"
      ],
      [
        "in",
        "se"
      ],
      [
        "in",
        "v_count"
      ],
      [
        "tu",
        "al_"
      ],
      [
        "um",
        "n"
      ],
      [
        "un",
        "its"
      ],
      [
        "de",
        "g"
      ],
      [
        "li",
        "es"
      ],
      [
        "li",
        "teral"
      ],
      [
        "le",
        "a"
      ],
      [
        "le",
        "x"
      ],
      [
        "the",
        "ir"
      ],
      [
        "al",
        "tern"
      ],
      [
        "for",
        "mat"
      ],
      [
        "co",
        "ordinate"
      ],
      [
        "tup",
        "2"
      ],
      [
        "sum",
        "of"
      ],
      [
        "==",
        "\""
      ],
      [
        "ele",
        "m"
      ],
      [
        "max",
        "size"
      ],
      [
        "test_",
        "list1"
      ],
      [
        "ter",
        "ms"
      ],
      [
        "he",
        "x"
      ],
      [
        "me",
        "an"
      ],
      [
        "hi",
        "ghe"
      ],
      [
        "char",
        "_"
      ],
      [
        "text",
        "1"
      ],
      [
        "ac",
        "tual_"
      ],
      [
        "tr",
        "a"
      ],
      [
        "test_list",
        "2"
      ],
      [
        "heap",
        "push"
      ],
      [
        "pa",
        "th"
      ],
      [
        "col",
        "on"
      ],
      [
        "col",
        "umn"
      ],
      [
        "whe",
        "re"
      ],
      [
        "(\"",
        "["
      ],
      [
        "sum_",
        "range"
      ],
      [
        "month",
        "num2"
      ],
      [
        "ex",
        "ist"
      ],
      [
        "spec",
        "ial"
      ],
      [
        "sq",
        "a"
      ],
      [
        "ha",
        "ving"
      ],
      [
        "lon",
        "g"
      ],
      [
        "curr",
        "_sum"
      ],
      [
        "cy",
        "linder"
      ],
      [
        "[:",
        "-"
      ],
      [
        "ms",
        "is"
      ],
      [
        "sa",
        "mp"
      ],
      [
        "sa",
        "le_"
      ],
      [
        "repe",
        "at"
      ],
      [
        "vow",
        "_list"
      ],
      [
        "comp",
        "ile"
      ],
      [
        "comp",
        "lex"
      ],
      [
        "duplicate",
        "s"
      ],
      [
        "gap",
        "s"
      ],
      [
        "monthname",
        "2"
      ],
      [
        "gen",
        "erate"
      ],
      [
        "io",
        "u"
      ],
      [
        "ludic",
        "s"
      ],
      [
        "binomial_coef",
        "f"
      ],
      [
        "ca",
        "mel"
      ],
      [
        "cep",
        "t"
      ],
      [
        "concaten",
        "ate"
      ],
      [
        "ae",
        "iou"
      ],
      [
        "poly",
        "gon"
      ],
      [
        "increasing_",
        "subsequence"
      ],
      [
        "discrimin",
        "ant"
      ],
      [
        "flat",
        "ten"
      ],
      [
        "gri",
        "d"
      ],
      [
        "pare",
        "nthe"
      ],
      [
        "actual_",
        "cost"
      ],
      [
        "sale_",
        "amount"
      ],
      [
        "\"",
        "\\"
      ],
      [
        "'",
        "^"
      ],
      [
        "'",
        "):"
      ],
      [
        "'",
        "))"
      ],
      [
        "'",
        "',"
      ],
      [
        "'",
        "'."
      ],
      [
        ")",
        "=="
      ],
      [
        "1",
        "4"
      ],
      [
        "_",
        "tuples"
      ],
      [
        "_",
        "matrix"
      ],
      [
        "a",
        "u"
      ],
      [
        "a",
        "ri"
      ],
      [
        "a",
        "mic"
      ],
      [
        "c",
        "ap"
      ],
      [
        "d",
        "s"
      ],
      [
        "d",
        "en"
      ],
      [
        "f",
        "ect"
      ],
      [
        "f",
        "lip"
      ],
      [
        "i",
        "ent"
      ],
      [
        "l",
        "ds"
      ],
      [
        "m",
        "cl"
      ],
      [
        "o",
        "p"
      ],
      [
        "p",
        "lat"
      ],
      [
        "r",
        "in"
      ],
      [
        "y",
        "1"
      ],
      [
        "y",
        "2"
      ],
      [
        "|",
        "="
      ],
      [
        "re",
        "v"
      ],
      [
        "or",
        "ig"
      ],
      [
        "de",
        "d"
      ],
      [
        "de",
        "p"
      ],
      [
        "li",
        "m"
      ],
      [
        "le",
        "ss"
      ],
      [
        "se",
        "ction"
      ],
      [
        "for",
        "me"
      ],
      [
        "of",
        "f"
      ],
      [
        "co",
        "s"
      ],
      [
        "iven",
        "um"
      ],
      [
        "sum",
        "m"
      ],
      [
        "sum",
        "_list"
      ],
      [
        "mp",
        "is"
      ],
      [
        "at",
        "or"
      ],
      [
        "di",
        "t"
      ],
      [
        "di",
        "stance"
      ],
      [
        "test_",
        "dict"
      ],
      [
        "is",
        "digit"
      ],
      [
        "me",
        "tri"
      ],
      [
        "sub",
        "sequences"
      ],
      [
        "mi",
        "dd"
      ],
      [
        "rom",
        "an"
      ],
      [
        "cu",
        "bo"
      ],
      [
        "end",
        "ing"
      ],
      [
        "])",
        "):"
      ],
      [
        "array",
        "_"
      ],
      [
        "max_",
        "length"
      ],
      [
        "heap",
        "ify"
      ],
      [
        "per",
        "m"
      ],
      [
        "per",
        "fect"
      ],
      [
        "sum_",
        "fact"
      ],
      [
        "il",
        "l"
      ],
      [
        "lar",
        "gest_"
      ],
      [
        "ex",
        "ten"
      ],
      [
        "ex",
        "cl"
      ],
      [
        "min_",
        "length"
      ],
      [
        "fo",
        "ur"
      ],
      [
        "sq",
        "b"
      ],
      [
        "curr",
        "_term"
      ],
      [
        "name",
        "s"
      ],
      [
        "contain",
        "ing"
      ],
      [
        "radi",
        "x"
      ],
      [
        "radi",
        "us"
      ],
      [
        "ug",
        "ly"
      ],
      [
        "inter",
        "section"
      ],
      [
        "longest_",
        "increasing_subsequence"
      ],
      [
        "secon",
        "d"
      ],
      [
        "alpha",
        "be"
      ],
      [
        "text_match",
        "_"
      ],
      [
        "gold",
        "table"
      ],
      [
        "noof",
        "zeroes"
      ],
      [
        "coin",
        "s"
      ],
      [
        "wh",
        "ose"
      ],
      [
        "inse",
        "rt"
      ],
      [
        "literal",
        "s"
      ],
      [
        "coordinate",
        "s"
      ],
      [
        "amic",
        "able"
      ],
      [
        "cap",
        "it"
      ],
      [
        "forme",
        "d"
      ],
      [
        "metri",
        "c"
      ],
      [
        "cubo",
        "id"
      ],
      [
        "exten",
        "d"
      ],
      [
        "\"",
        "["
      ],
      [
        "(",
        "-"
      ],
      [
        ")",
        "("
      ],
      [
        ")",
        "*("
      ],
      [
        "*",
        "?"
      ],
      [
        "+",
        "',"
      ],
      [
        ".",
        "',"
      ],
      [
        "2",
        "0"
      ],
      [
        "2",
        "6"
      ],
      [
        "3",
        "0"
      ],
      [
        "5",
        "0"
      ],
      [
        ":",
        "-"
      ],
      [
        "[",
        "])"
      ],
      [
        "_",
        "l"
      ],
      [
        "_",
        "ind"
      ],
      [
        "_",
        "and"
      ],
      [
        "_",
        "value"
      ],
      [
        "_",
        "area"
      ],
      [
        "_",
        "size"
      ],
      [
        "_",
        "square"
      ],
      [
        "_",
        "age"
      ],
      [
        "_",
        "set_"
      ],
      [
        "b",
        "ise"
      ],
      [
        "c",
        "lo"
      ],
      [
        "d",
        "bs"
      ],
      [
        "e",
        "p"
      ],
      [
        "e",
        "ma"
      ],
      [
        "f",
        "ic"
      ],
      [
        "h",
        "ar"
      ],
      [
        "j",
        "ect"
      ],
      [
        "l",
        "sa"
      ],
      [
        "m",
        "1"
      ],
      [
        "m",
        "si"
      ],
      [
        "n",
        "ct"
      ],
      [
        "o",
        "la"
      ],
      [
        "p",
        "1"
      ],
      [
        "s",
        "_"
      ],
      [
        "s",
        "en"
      ],
      [
        "s",
        "dict"
      ],
      [
        "s",
        "ive"
      ],
      [
        "t",
        "n"
      ],
      [
        "t",
        "mp"
      ],
      [
        "x",
        "1"
      ],
      [
        "x",
        "2"
      ],
      [
        "{",
        "'"
      ],
      [
        "in",
        "f"
      ],
      [
        "in",
        "n"
      ],
      [
        "in",
        "it"
      ],
      [
        "in",
        "valid"
      ],
      [
        "re",
        "m"
      ],
      [
        "re",
        "ar"
      ],
      [
        "re",
        "ate"
      ],
      [
        "te",
        "tra"
      ],
      [
        "en",
        "te"
      ],
      [
        "en",
        "ted"
      ],
      [
        "an",
        "gular"
      ],
      [
        "num",
        "_"
      ],
      [
        "num",
        "eric"
      ],
      [
        "of",
        "2"
      ],
      [
        "co",
        "py"
      ],
      [
        "str",
        "t_"
      ],
      [
        "str",
        "_list"
      ],
      [
        "range",
        "s"
      ],
      [
        "max",
        "i"
      ],
      [
        "max",
        "len"
      ],
      [
        "))",
        ","
      ],
      [
        "))",
        "]"
      ],
      [
        "string",
        "1"
      ],
      [
        "tuple",
        "1"
      ],
      [
        "he",
        "d"
      ],
      [
        "su",
        "per"
      ],
      [
        "no",
        "_of_"
      ],
      [
        "me",
        "mo"
      ],
      [
        "rom",
        "_val"
      ],
      [
        "])",
        ","
      ],
      [
        "con",
        "e"
      ],
      [
        "ke",
        "ts"
      ],
      [
        "set",
        "default"
      ],
      [
        "mon",
        "ic"
      ],
      [
        "pe",
        "a"
      ],
      [
        "col",
        "ors"
      ],
      [
        "tri",
        "_"
      ],
      [
        "tri",
        "p"
      ],
      [
        "10",
        "00"
      ],
      [
        "as",
        "ci"
      ],
      [
        "sorted",
        "1"
      ],
      [
        "sum_",
        "digits"
      ],
      [
        "check_",
        "equ"
      ],
      [
        "check_",
        "month"
      ],
      [
        "oc",
        "c"
      ],
      [
        "ut",
        "il"
      ],
      [
        "ab",
        "ola"
      ],
      [
        "div",
        "i"
      ],
      [
        "\")",
        ";"
      ],
      [
        "ex",
        "cept"
      ],
      [
        "min_",
        "ending_here"
      ],
      [
        "al_",
        "profit"
      ],
      [
        "sq",
        "c"
      ],
      [
        "next",
        "_term"
      ],
      [
        "power",
        "of2"
      ],
      [
        "flo",
        "or"
      ],
      [
        "replace",
        "_"
      ],
      [
        "binary",
        "_"
      ],
      [
        "ms",
        "dbs"
      ],
      [
        "volume",
        "_"
      ],
      [
        "my",
        "_matrix"
      ],
      [
        "set_",
        "bit"
      ],
      [
        "position",
        "s"
      ],
      [
        "radi",
        "an"
      ],
      [
        "comp",
        "ute"
      ],
      [
        "sub_",
        "set"
      ],
      [
        "left_",
        "element"
      ],
      [
        "seq",
        "_nums"
      ],
      [
        "par",
        "alle"
      ],
      [
        "par",
        "abola"
      ],
      [
        "ug",
        "lies"
      ],
      [
        "occu",
        "rence"
      ],
      [
        "current_",
        "element"
      ],
      [
        "secon",
        "d_"
      ],
      [
        "oper",
        "ator"
      ],
      [
        "oct",
        "al"
      ],
      [
        "fin",
        "al_profit"
      ],
      [
        "luc",
        "as"
      ],
      [
        "buc",
        "kets"
      ],
      [
        "deg",
        "ree"
      ],
      [
        "lea",
        "st"
      ],
      [
        "altern",
        "ate"
      ],
      [
        "highe",
        "st"
      ],
      [
        "parenthe",
        "se"
      ],
      [
        "14",
        "15"
      ],
      [
        "bise",
        "ct"
      ],
      [
        "ema",
        "il"
      ],
      [
        "fic",
        "ient"
      ],
      [
        "har",
        "monic"
      ],
      [
        "msi",
        "bs"
      ],
      [
        "tetra",
        "hed"
      ],
      [
        "strt_",
        "val"
      ],
      [
        "asci",
        "i"
      ],
      [
        "'",
        "}"
      ],
      [
        "(",
        "*"
      ],
      [
        ")",
        ">"
      ],
      [
        ")",
        "',"
      ],
      [
        "1",
        "8"
      ],
      [
        "[",
        "'"
      ],
      [
        "\\",
        "."
      ],
      [
        "_",
        "n"
      ],
      [
        "_",
        "range"
      ],
      [
        "_",
        "no"
      ],
      [
        "_",
        "mo"
      ],
      [
        "_",
        "ne"
      ],
      [
        "a",
        "f"
      ],
      [
        "b",
        "us"
      ],
      [
        "b",
        "ig"
      ],
      [
        "c",
        "0"
      ],
      [
        "c",
        "1"
      ],
      [
        "c",
        "or"
      ],
      [
        "c",
        "at"
      ],
      [
        "c",
        "ation"
      ],
      [
        "c",
        "reate"
      ],
      [
        "d",
        "f"
      ],
      [
        "d",
        "t"
      ],
      [
        "e",
        "ded"
      ],
      [
        "f",
        "ac"
      ],
      [
        "f",
        "ctr"
      ],
      [
        "h",
        "t"
      ],
      [
        "h",
        "an"
      ],
      [
        "h",
        "_age"
      ],
      [
        "i",
        "el"
      ],
      [
        "m",
        "an"
      ],
      [
        "n",
        "ing_"
      ],
      [
        "o",
        "ver"
      ],
      [
        "o",
        "us"
      ],
      [
        "o",
        "metric"
      ],
      [
        "r",
        "d"
      ],
      [
        "r",
        "on"
      ],
      [
        "r",
        "at"
      ],
      [
        "s",
        "d"
      ],
      [
        "t",
        "ree"
      ],
      [
        "u",
        "st"
      ],
      [
        "v",
        "ari"
      ],
      [
        "w",
        "er"
      ],
      [
        "y",
        "_num"
      ],
      [
        "y",
        "iel"
      ],
      [
        "z",
        "a"
      ],
      [
        "in",
        "um"
      ],
      [
        "in",
        "ver"
      ],
      [
        "re",
        "ma"
      ],
      [
        "on",
        "ding"
      ],
      [
        "en",
        "co"
      ],
      [
        "un",
        "set"
      ],
      [
        "un",
        "der"
      ],
      [
        "de",
        "ls"
      ],
      [
        "le",
        "ap"
      ],
      [
        "of",
        "sum"
      ],
      [
        "ge",
        "ometric"
      ],
      [
        "res",
        "s"
      ],
      [
        "sum",
        "1"
      ],
      [
        "max",
        "prime"
      ],
      [
        "len",
        "_"
      ],
      [
        "))",
        "))"
      ],
      [
        "is",
        "o"
      ],
      [
        "result",
        "_list"
      ],
      [
        "qu",
        "ent"
      ],
      [
        "sub",
        "set_"
      ],
      [
        "sub",
        "seq"
      ],
      [
        "sub",
        "ject"
      ],
      [
        "mo",
        "re"
      ],
      [
        "po",
        "lar"
      ],
      [
        "lo",
        "ss"
      ],
      [
        "char",
        "ge"
      ],
      [
        "im",
        "balance"
      ],
      [
        "ac",
        "ces"
      ],
      [
        "max_",
        "value"
      ],
      [
        "max_",
        "sum_"
      ],
      [
        "two",
        "_"
      ],
      [
        "ren",
        "ces"
      ],
      [
        "ren",
        "cont"
      ],
      [
        "ip",
        "_ind"
      ],
      [
        "word",
        "_len"
      ],
      [
        "col",
        "_st"
      ],
      [
        "col",
        "_ed"
      ],
      [
        "find_",
        "max"
      ],
      [
        "find_",
        "first_"
      ],
      [
        "find_",
        "pea"
      ],
      [
        "per",
        "rin"
      ],
      [
        "count_",
        "map"
      ],
      [
        "start",
        "ing"
      ],
      [
        "equ",
        "i"
      ],
      [
        "equ",
        "ation"
      ],
      [
        "month",
        "num3"
      ],
      [
        "remove_",
        "index"
      ],
      [
        "ans",
        "wer"
      ],
      [
        "get_",
        "height"
      ],
      [
        "min_",
        "val"
      ],
      [
        "add",
        "ress"
      ],
      [
        "smalle",
        "r"
      ],
      [
        "new",
        "man"
      ],
      [
        "row",
        "_st"
      ],
      [
        "row",
        "_ed"
      ],
      [
        "ra",
        "m"
      ],
      [
        "cont",
        "in"
      ],
      [
        "ali",
        "ty"
      ],
      [
        "spli",
        "t_"
      ],
      [
        "power",
        "_of_"
      ],
      [
        "square",
        "ofsum"
      ],
      [
        "dec",
        "inum"
      ],
      [
        "sur",
        "charge"
      ],
      [
        "reverse",
        "d"
      ],
      [
        "ten",
        "ce"
      ],
      [
        "cube",
        "s"
      ],
      [
        "_to_",
        "tuple"
      ],
      [
        "dic",
        "_data"
      ],
      [
        "binomi",
        "al"
      ],
      [
        "combin",
        "e"
      ],
      [
        "sh",
        "if"
      ],
      [
        "monthname",
        "3"
      ],
      [
        "part",
        "s"
      ],
      [
        "ur",
        "l"
      ],
      [
        "lateral",
        "surface"
      ],
      [
        "current_",
        "sum"
      ],
      [
        "point",
        "s"
      ],
      [
        "surfacearea",
        "_"
      ],
      [
        "rectangle",
        "s"
      ],
      [
        "run",
        "ning_"
      ],
      [
        "last_",
        "digit"
      ],
      [
        "balance",
        "d"
      ],
      [
        "]?",
        "["
      ],
      [
        "do",
        "g"
      ],
      [
        "samp",
        "le_"
      ],
      [
        "'^",
        "["
      ],
      [
        "plat",
        "_ne"
      ],
      [
        "perm",
        "ut"
      ],
      [
        "alphabe",
        "ts"
      ],
      [
        "amicable",
        "s"
      ],
      [
        "clo",
        "se"
      ],
      [
        "sen",
        "tence"
      ],
      [
        "ente",
        "red"
      ],
      [
        "super",
        "_"
      ],
      [
        "trip",
        "let"
      ],
      [
        "check_equ",
        "ality"
      ],
      [
        "divi",
        "de"
      ],
      [
        "binary_",
        "search"
      ],
      [
        "18",
        "0"
      ],
      [
        "af",
        "ter"
      ],
      [
        "ht",
        "t"
      ],
      [
        "vari",
        "able"
      ],
      [
        "yiel",
        "d"
      ],
      [
        "inver",
        "sion"
      ],
      [
        "rema",
        "inder"
      ],
      [
        "rencont",
        "res"
      ],
      [
        "running_",
        "count"
      ],
      [
        "plat_ne",
        "eded"
      ],
      [
        "'",
        "]"
      ],
      [
        "'",
        "')"
      ],
      [
        "(",
        "."
      ],
      [
        ")",
        "//"
      ],
      [
        ")",
        ">="
      ],
      [
        "+",
        "("
      ],
      [
        ",",
        "("
      ],
      [
        "-",
        "\\\\"
      ],
      [
        "1",
        "_"
      ],
      [
        "2",
        "1"
      ],
      [
        "3",
        "d"
      ],
      [
        "4",
        "5"
      ],
      [
        ":",
        "]))"
      ],
      [
        "=",
        "("
      ],
      [
        "=",
        "["
      ],
      [
        "_",
        "to"
      ],
      [
        "_",
        "max"
      ],
      [
        "_",
        "min"
      ],
      [
        "_",
        "int"
      ],
      [
        "_",
        "product"
      ],
      [
        "_",
        "words"
      ],
      [
        "_",
        "perimeter"
      ],
      [
        "_",
        "nested"
      ],
      [
        "_",
        "even_"
      ],
      [
        "_",
        "specific"
      ],
      [
        "a",
        "list"
      ],
      [
        "a",
        "co"
      ],
      [
        "b",
        "st"
      ],
      [
        "b",
        "on"
      ],
      [
        "b",
        "ot"
      ],
      [
        "b",
        "_number"
      ],
      [
        "c",
        "la"
      ],
      [
        "c",
        "_num"
      ],
      [
        "d",
        "1"
      ],
      [
        "d",
        "2"
      ],
      [
        "e",
        "z"
      ],
      [
        "e",
        "ap"
      ],
      [
        "e",
        "ule"
      ],
      [
        "f",
        "e"
      ],
      [
        "f",
        "if"
      ],
      [
        "i",
        "um"
      ],
      [
        "i",
        "ce"
      ],
      [
        "i",
        "su"
      ],
      [
        "i",
        "_list"
      ],
      [
        "i",
        "ces"
      ],
      [
        "i",
        "ze"
      ],
      [
        "i",
        "cal"
      ],
      [
        "i",
        "al_"
      ],
      [
        "j",
        "aco"
      ],
      [
        "l",
        "3"
      ],
      [
        "l",
        "an"
      ],
      [
        "l",
        "num"
      ],
      [
        "m",
        "en"
      ],
      [
        "m",
        "ber"
      ],
      [
        "m",
        "ust"
      ],
      [
        "n",
        "no"
      ],
      [
        "n",
        "smallest"
      ],
      [
        "n",
        "largest"
      ],
      [
        "p",
        "2"
      ],
      [
        "p",
        "3"
      ],
      [
        "p",
        "4"
      ],
      [
        "p",
        "5"
      ],
      [
        "p",
        "6"
      ],
      [
        "p",
        "q"
      ],
      [
        "p",
        "ent"
      ],
      [
        "p",
        "per"
      ],
      [
        "p",
        "onding"
      ],
      [
        "q",
        "_items"
      ],
      [
        "r",
        "t_"
      ],
      [
        "s",
        "1"
      ],
      [
        "s",
        "l"
      ],
      [
        "s",
        "co"
      ],
      [
        "t",
        "a"
      ],
      [
        "t",
        "an"
      ],
      [
        "t",
        "ren"
      ],
      [
        "u",
        "ary"
      ],
      [
        "w",
        "_"
      ],
      [
        "w",
        "ind"
      ],
      [
        "x",
        "s"
      ],
      [
        "}",
        ")-"
      ],
      [
        "in",
        "verse"
      ],
      [
        "re",
        "_"
      ],
      [
        "re",
        "ction"
      ],
      [
        "re",
        "pres"
      ],
      [
        "re",
        "present"
      ],
      [
        "re",
        "arrange"
      ],
      [
        "st",
        "ar"
      ],
      [
        "te",
        "x"
      ],
      [
        "te",
        "spaces"
      ],
      [
        "on",
        "ic"
      ],
      [
        "tu",
        "mn"
      ],
      [
        "th",
        "ing"
      ],
      [
        "or",
        "de"
      ],
      [
        "or",
        "dd"
      ],
      [
        "en",
        "sive"
      ],
      [
        "ct",
        "or"
      ],
      [
        "ri",
        "an"
      ],
      [
        "de",
        "v"
      ],
      [
        "de",
        "al"
      ],
      [
        "ar",
        "c"
      ],
      [
        "ar",
        "d"
      ],
      [
        "list",
        "3"
      ],
      [
        "list",
        "_"
      ],
      [
        "list",
        "val"
      ],
      [
        "list",
        "_num"
      ],
      [
        "list",
        "_data"
      ],
      [
        "al",
        "an"
      ],
      [
        "al",
        "ent"
      ],
      [
        "al",
        "so"
      ],
      [
        "se",
        "ctor"
      ],
      [
        "res",
        "ponding"
      ],
      [
        "str",
        "act"
      ],
      [
        "ch",
        "eap"
      ],
      [
        "iv",
        "id"
      ],
      [
        "iv",
        "alent"
      ],
      [
        "ind",
        "ivid"
      ],
      [
        "find",
        "iter"
      ],
      [
        "number",
        "_ctr"
      ],
      [
        "max",
        "ele"
      ],
      [
        "max",
        "_list"
      ],
      [
        "max",
        "value"
      ],
      [
        "max",
        "occ"
      ],
      [
        "count",
        "s"
      ],
      [
        "count",
        "val"
      ],
      [
        "ul",
        "o"
      ],
      [
        "at",
        "ing"
      ],
      [
        "di",
        "ty"
      ],
      [
        "di",
        "rect"
      ],
      [
        "di",
        "men"
      ],
      [
        "di",
        "rection"
      ],
      [
        "tuple",
        "_to_"
      ],
      [
        "is",
        "alpha"
      ],
      [
        "is",
        "ize"
      ],
      [
        "ec",
        "ted"
      ],
      [
        "it",
        "ion"
      ],
      [
        "result",
        "_string"
      ],
      [
        "ap",
        "ez"
      ],
      [
        "la",
        "te"
      ],
      [
        "qu",
        "ot"
      ],
      [
        "qu",
        "ad"
      ],
      [
        "sub",
        "array"
      ],
      [
        "sub",
        "stract"
      ],
      [
        "rom",
        "bus"
      ],
      [
        "min",
        "ele"
      ],
      [
        "min",
        "_list"
      ],
      [
        "cu",
        "s"
      ],
      [
        "end",
        "x"
      ],
      [
        "end",
        "y"
      ],
      [
        "whi",
        "tespaces"
      ],
      [
        "text",
        "s"
      ],
      [
        "ac",
        "ci"
      ],
      [
        "tr",
        "apez"
      ],
      [
        "max_",
        "count"
      ],
      [
        "max_",
        "product"
      ],
      [
        "all",
        "_"
      ],
      [
        "all",
        "y"
      ],
      [
        "set",
        "bits"
      ],
      [
        "ver",
        "tex"
      ],
      [
        "sp",
        "here"
      ],
      [
        "sp",
        "ace"
      ],
      [
        "dict",
        "2"
      ],
      [
        "item",
        "_list"
      ],
      [
        "item",
        "get"
      ],
      [
        "heap",
        "_"
      ],
      [
        "((",
        "("
      ],
      [
        "('",
        ","
      ],
      [
        "()",
        "]"
      ],
      [
        "()",
        "):"
      ],
      [
        "col",
        "or"
      ],
      [
        "find_",
        "min"
      ],
      [
        "eli",
        "m"
      ],
      [
        "as",
        "sign"
      ],
      [
        "count_",
        "elim"
      ],
      [
        "pos",
        "_count"
      ],
      [
        "app",
        "ed"
      ],
      [
        "(\"",
        "\"."
      ],
      [
        "sum_",
        "nums"
      ],
      [
        "check_",
        "element"
      ],
      [
        "check_",
        "solution"
      ],
      [
        "area",
        "_"
      ],
      [
        "ab",
        "und"
      ],
      [
        "equ",
        "al_"
      ],
      [
        "equ",
        "ivalent"
      ],
      [
        "angle",
        "d"
      ],
      [
        "remove_",
        "lower"
      ],
      [
        "remove_",
        "duplicate"
      ],
      [
        "remove_",
        "empty"
      ],
      [
        "\",",
        "\""
      ],
      [
        "cal",
        "uc"
      ],
      [
        "ing_",
        "char"
      ],
      [
        "place",
        "ment"
      ],
      [
        "ex",
        "pres"
      ],
      [
        "min_",
        "count"
      ],
      [
        "min_",
        "swaps"
      ],
      [
        "lst",
        "1"
      ],
      [
        "add",
        "_dict"
      ],
      [
        "extr",
        "a"
      ],
      [
        "al_",
        "to_"
      ],
      [
        "prime",
        "divisors"
      ],
      [
        "is_",
        "subset_"
      ],
      [
        "divis",
        "ion"
      ],
      [
        "new",
        "_num"
      ],
      [
        "new",
        "_length"
      ],
      [
        "fo",
        "cus"
      ],
      [
        "ha",
        "mm"
      ],
      [
        "mult",
        "i_list"
      ],
      [
        "next",
        "_list"
      ],
      [
        "ali",
        "ze"
      ],
      [
        "power",
        "_sum"
      ],
      [
        "multip",
        "li"
      ],
      [
        "data",
        "set"
      ],
      [
        "lower",
        "_ctr"
      ],
      [
        "ad",
        "ver"
      ],
      [
        "ume",
        "ric"
      ],
      [
        "]+",
        "["
      ],
      [
        "]+",
        "$'"
      ],
      [
        "inc",
        "l"
      ],
      [
        "[:",
        "]"
      ],
      [
        "vali",
        "dity"
      ],
      [
        "set_",
        "bits"
      ],
      [
        "upper",
        "_ctr"
      ],
      [
        "merge",
        "d_"
      ],
      [
        "iter",
        "able"
      ],
      [
        "bit",
        "wise"
      ],
      [
        "neg",
        "_count"
      ],
      [
        "radi",
        "ans"
      ],
      [
        "]))",
        ";"
      ],
      [
        "base",
        "1"
      ],
      [
        "base",
        "2"
      ],
      [
        "base",
        "s"
      ],
      [
        "sw",
        "apped"
      ],
      [
        "rect",
        "angular"
      ],
      [
        "fi",
        "bon"
      ],
      [
        "k_",
        "util"
      ],
      [
        "uni",
        "q_items"
      ],
      [
        "right_",
        "element"
      ],
      [
        "lin",
        "es"
      ],
      [
        "lin",
        "ear"
      ],
      [
        "sol",
        "ve"
      ],
      [
        "sub_",
        "res"
      ],
      [
        "chil",
        "l"
      ],
      [
        "mx",
        "m"
      ],
      [
        "alp",
        "han"
      ],
      [
        "res_",
        "ind"
      ],
      [
        "bo",
        "ol"
      ],
      [
        "common_",
        "subsequence"
      ],
      [
        "mod",
        "ule"
      ],
      [
        "mod",
        "ulo"
      ],
      [
        "longest_",
        "common_subsequence"
      ],
      [
        "__",
        "init"
      ],
      [
        "exp",
        "ensive"
      ],
      [
        "exp",
        "ected"
      ],
      [
        "solution",
        "s"
      ],
      [
        "yy",
        "yy"
      ],
      [
        "most_",
        "common"
      ],
      [
        "log",
        "ram"
      ],
      [
        "occur",
        "s"
      ],
      [
        "binomial_coef",
        "fi"
      ],
      [
        "dict_",
        "str1"
      ],
      [
        "dict_",
        "str2"
      ],
      [
        "]*",
        "',"
      ],
      [
        "int_",
        "val"
      ],
      [
        "]?",
        ")"
      ],
      [
        "recur",
        "sion"
      ],
      [
        "record",
        "s"
      ],
      [
        "mixed",
        "_list"
      ],
      [
        "prev",
        "_list"
      ],
      [
        "]|",
        "["
      ],
      [
        "circ",
        "le"
      ],
      [
        "hund",
        "1"
      ],
      [
        "hund",
        "4"
      ],
      [
        "sumof",
        "primedivisors"
      ],
      [
        "exist",
        "s"
      ],
      [
        "aeiou",
        "aeiou"
      ],
      [
        "polygon",
        "s"
      ],
      [
        "au",
        "tumn"
      ],
      [
        "rev",
        "_num"
      ],
      [
        "lim",
        "it"
      ],
      [
        "off",
        "set"
      ],
      [
        "dit",
        "ion"
      ],
      [
        "midd",
        "le"
      ],
      [
        "four",
        "th"
      ],
      [
        "insert",
        "ion"
      ],
      [
        "capit",
        "alize"
      ],
      [
        "inn",
        "er"
      ],
      [
        "sum_digits",
        "_"
      ],
      [
        "check_month",
        "num"
      ],
      [
        "paralle",
        "logram"
      ],
      [
        "harmonic",
        "_sum"
      ],
      [
        "tetrahed",
        "ron"
      ],
      [
        "cor",
        "responding"
      ],
      [
        "cat",
        "alan"
      ],
      [
        "rat",
        "ic"
      ],
      [
        "under",
        "sco"
      ],
      [
        "acces",
        "s"
      ],
      [
        "find_pea",
        "k_util"
      ],
      [
        "contin",
        "ue"
      ],
      [
        "sample_",
        "names"
      ],
      [
        "close",
        "st"
      ],
      [
        "super_",
        "seq"
      ],
      [
        "htt",
        "ps"
      ],
      [
        "rencontres",
        "_number"
      ],
      [
        "_to",
        "_list"
      ],
      [
        "bst",
        "h"
      ],
      [
        "bot",
        "to"
      ],
      [
        "cla",
        "ss"
      ],
      [
        "eule",
        "rian"
      ],
      [
        "fif",
        "th"
      ],
      [
        "isu",
        "pper"
      ],
      [
        "jaco",
        "bsth"
      ],
      [
        "nno",
        "y_num"
      ],
      [
        "pent",
        "agon"
      ],
      [
        "tren",
        "d"
      ],
      [
        "})-",
        "(\\"
      ],
      [
        "repres",
        "ented"
      ],
      [
        "orde",
        "red"
      ],
      [
        "deal",
        "nnoy_num"
      ],
      [
        "individ",
        "u"
      ],
      [
        "direct",
        "rix"
      ],
      [
        "dimen",
        "sion"
      ],
      [
        "quad",
        "ratic"
      ],
      [
        "trapez",
        "ium"
      ],
      [
        "itemget",
        "ter"
      ],
      [
        "abund",
        "ant"
      ],
      [
        "caluc",
        "late"
      ],
      [
        "expres",
        "sion"
      ],
      [
        "is_subset_",
        "sum"
      ],
      [
        "merged_",
        "dict"
      ],
      [
        "fibon",
        "acci"
      ],
      [
        "alphan",
        "umeric"
      ],
      [
        "__init",
        "__"
      ],
      [
        "undersco",
        "re"
      ],
      [
        "\"",
        "^"
      ],
      [
        "\"",
        "{"
      ],
      [
        "\"",
        "))"
      ],
      [
        "'",
        "])"
      ],
      [
        ")",
        "<"
      ],
      [
        ")",
        "?"
      ],
      [
        ")",
        "(["
      ],
      [
        ")",
        "[:"
      ],
      [
        ",",
        "."
      ],
      [
        ".",
        "["
      ],
      [
        "/",
        "="
      ],
      [
        "1",
        "1"
      ],
      [
        "1",
        "30"
      ],
      [
        ":",
        ":"
      ],
      [
        ":",
        "//"
      ],
      [
        ":",
        ":-"
      ],
      [
        "=",
        "(("
      ],
      [
        "=",
        "[]"
      ],
      [
        "?",
        "'"
      ],
      [
        "]",
        "\""
      ],
      [
        "]",
        "("
      ],
      [
        "]",
        "\\"
      ],
      [
        "]",
        "=="
      ],
      [
        "]",
        "',"
      ],
      [
        "]",
        "*("
      ],
      [
        "_",
        "li"
      ],
      [
        "_",
        "ele"
      ],
      [
        "_",
        "char"
      ],
      [
        "_",
        "numbers"
      ],
      [
        "_",
        "odd"
      ],
      [
        "_",
        "even"
      ],
      [
        "_",
        "one"
      ],
      [
        "_",
        "diff"
      ],
      [
        "_",
        "prime"
      ],
      [
        "_",
        "right"
      ],
      [
        "_",
        "equal"
      ],
      [
        "_",
        "consecutive"
      ],
      [
        "_",
        "common_"
      ],
      [
        "_",
        "date"
      ],
      [
        "_",
        "price"
      ],
      [
        "_",
        "format"
      ],
      [
        "_",
        "colon"
      ],
      [
        "_",
        "dit"
      ],
      [
        "_",
        "balanced"
      ],
      [
        "a",
        "v"
      ],
      [
        "a",
        "decimal"
      ],
      [
        "b",
        "i"
      ],
      [
        "b",
        "r"
      ],
      [
        "c",
        "le"
      ],
      [
        "c",
        "ter"
      ],
      [
        "d",
        "ct"
      ],
      [
        "d",
        "list"
      ],
      [
        "d",
        "ent"
      ],
      [
        "d",
        "ot"
      ],
      [
        "g",
        "2"
      ],
      [
        "g",
        "re"
      ],
      [
        "g",
        "res"
      ],
      [
        "h",
        "set"
      ],
      [
        "i",
        "an"
      ],
      [
        "i",
        "idx"
      ],
      [
        "j",
        "un"
      ],
      [
        "k",
        "ing"
      ],
      [
        "m",
        "arch"
      ],
      [
        "n",
        "_common_"
      ],
      [
        "o",
        "d"
      ],
      [
        "o",
        "d_"
      ],
      [
        "p",
        "h"
      ],
      [
        "p",
        "char"
      ],
      [
        "p",
        "tr"
      ],
      [
        "p",
        "set"
      ],
      [
        "p",
        "tem"
      ],
      [
        "r",
        "1"
      ],
      [
        "r",
        "2"
      ],
      [
        "r",
        "ing"
      ],
      [
        "r",
        "ation"
      ],
      [
        "s",
        "2"
      ],
      [
        "s",
        "in"
      ],
      [
        "s",
        "set"
      ],
      [
        "s",
        "lat"
      ],
      [
        "t",
        "ic"
      ],
      [
        "t",
        "ill"
      ],
      [
        "u",
        "ous"
      ],
      [
        "u",
        "dent"
      ],
      [
        "w",
        "heap"
      ],
      [
        "y",
        "3"
      ],
      [
        "z",
        "ag"
      ],
      [
        "z",
        "ig"
      ],
      [
        "}",
        "\\"
      ],
      [
        "}",
        ")/"
      ],
      [
        "²",
        "+"
      ],
      [
        "³",
        "+"
      ],
      [
        "re",
        "p"
      ],
      [
        "re",
        "mo"
      ],
      [
        "st",
        "s"
      ],
      [
        "st",
        "ri"
      ],
      [
        "st",
        "op"
      ],
      [
        "st",
        "ep"
      ],
      [
        "st",
        "udent"
      ],
      [
        "te",
        "st"
      ],
      [
        "th",
        "en"
      ],
      [
        "th",
        "ose"
      ],
      [
        "en",
        "ce"
      ],
      [
        "de",
        "lim"
      ],
      [
        "li",
        "1"
      ],
      [
        "li",
        "2"
      ],
      [
        "le",
        "ct"
      ],
      [
        "le",
        "ad"
      ],
      [
        "the",
        "re"
      ],
      [
        "list",
        "_nums"
      ],
      [
        "se",
        "ptem"
      ],
      [
        "of",
        "_num"
      ],
      [
        "ma",
        "s"
      ],
      [
        "ma",
        "de"
      ],
      [
        "res",
        "_num"
      ],
      [
        "str",
        "r"
      ],
      [
        "str",
        "_len"
      ],
      [
        "ch",
        "o"
      ],
      [
        "ind",
        "ices"
      ],
      [
        "sum",
        "2"
      ],
      [
        "ro",
        "ad"
      ],
      [
        "ele",
        "s"
      ],
      [
        "max",
        "1"
      ],
      [
        "max",
        "x"
      ],
      [
        "))",
        "):"
      ],
      [
        "di",
        "s"
      ],
      [
        "string",
        "2"
      ],
      [
        "el",
        "at"
      ],
      [
        "tuple",
        "_"
      ],
      [
        "tuple",
        "_str"
      ],
      [
        "it",
        "y"
      ],
      [
        "result",
        "1"
      ],
      [
        "result",
        "2"
      ],
      [
        "sub",
        "s"
      ],
      [
        "mo",
        "dif"
      ],
      [
        "][",
        "^"
      ],
      [
        "t_",
        "down"
      ],
      [
        "po",
        "si"
      ],
      [
        "mi",
        "ze"
      ],
      [
        "min",
        "e"
      ],
      [
        "end",
        "s"
      ],
      [
        "])",
        ";"
      ],
      [
        "array",
        "nums"
      ],
      [
        "char",
        "1"
      ],
      [
        "char",
        "2"
      ],
      [
        "ac",
        "cep"
      ],
      [
        "max_",
        "char"
      ],
      [
        "max_",
        "of_"
      ],
      [
        "max_",
        "height"
      ],
      [
        "max_",
        "sub_"
      ],
      [
        "max_",
        "occurrences"
      ],
      [
        "tw",
        "ice"
      ],
      [
        "move",
        "_"
      ],
      [
        "ev",
        "_li"
      ],
      [
        "odd",
        "pair"
      ],
      [
        "even",
        "pair"
      ],
      [
        "even",
        "_f"
      ],
      [
        "('",
        "',"
      ],
      [
        "('",
        "'."
      ],
      [
        "sort",
        "_list"
      ],
      [
        "ren",
        "t"
      ],
      [
        "pa",
        "ss"
      ],
      [
        "col",
        "num"
      ],
      [
        "find_",
        "gcd"
      ],
      [
        "find_",
        "lcm"
      ],
      [
        "find_",
        "lucas"
      ],
      [
        "index",
        "_"
      ],
      [
        "be",
        "fo"
      ],
      [
        "count_",
        "odd"
      ],
      [
        "count_",
        "even"
      ],
      [
        "count_",
        "right"
      ],
      [
        "count_",
        "pairs"
      ],
      [
        "count_",
        "left"
      ],
      [
        "count_",
        "chars"
      ],
      [
        "sorted",
        "_dict"
      ],
      [
        "sorted",
        "_mo"
      ],
      [
        "start",
        "s"
      ],
      [
        "start",
        "ing_char"
      ],
      [
        "sum_",
        "odd"
      ],
      [
        "sum_",
        "posit"
      ],
      [
        "sum_",
        "natural"
      ],
      [
        "sum_",
        "negat"
      ],
      [
        "sum_",
        "series"
      ],
      [
        "rea",
        "ch"
      ],
      [
        "il",
        "ing"
      ],
      [
        "check_",
        "min_"
      ],
      [
        "check_",
        "triplet"
      ],
      [
        "')",
        ","
      ],
      [
        "oc",
        "curr"
      ],
      [
        "pro",
[...]
